{
  "version": "1.0",
  "truncation": {
    "direction": "Right",
    "max_length": 512,
    "strategy": "LongestFirst",
    "stride": 0
  },
  "padding": null,
  "added_tokens": [
    {
      "id": 0,
      "content": "+ا",
      "single_word": true,
      "lstrip": false,
      "rstrip": false,
      "normalized": true,
      "special": true
    },
    {
      "id": 1,
      "content": "+ك",
      "single_word": true,
      "lstrip": false,
      "rstrip": false,
      "normalized": true,
      "special": true
    },
    {
      "id": 2,
      "content": "ب+",
      "single_word": true,
      "lstrip": false,
      "rstrip": false,
      "normalized": true,
      "special": true
    },
    {
      "id": 3,
      "content": "+هم",
      "single_word": true,
      "lstrip": false,
      "rstrip": false,
      "normalized": true,
      "special": true
    },
    {
      "id": 4,
      "content": "+ات",
      "single_word": true,
      "lstrip": false,
      "rstrip": false,
      "normalized": true,
      "special": true
    },
    {
      "id": 5,
      "content": "+ي",
      "single_word": true,
      "lstrip": false,
      "rstrip": false,
      "normalized": true,
      "special": true
    },
    {
      "id": 6,
      "content": "ل+",
      "single_word": true,
      "lstrip": false,
      "rstrip": false,
      "normalized": true,
      "special": true
    },
    {
      "id": 7,
      "content": "+هما",
      "single_word": true,
      "lstrip": false,
      "rstrip": false,
      "normalized": true,
      "special": true
    },
    {
      "id": 8,
      "content": "+نا",
      "single_word": true,
      "lstrip": false,
      "rstrip": false,
      "normalized": true,
      "special": true
    },
    {
      "id": 9,
      "content": "+ن",
      "single_word": true,
      "lstrip": false,
      "rstrip": false,
      "normalized": true,
      "special": true
    },
    {
      "id": 10,
      "content": "+ها",
      "single_word": true,
      "lstrip": false,
      "rstrip": false,
      "normalized": true,
      "special": true
    },
    {
      "id": 11,
      "content": "+كما",
      "single_word": true,
      "lstrip": false,
      "rstrip": false,
      "normalized": true,
      "special": true
    },
    {
      "id": 12,
      "content": "+ة",
      "single_word": true,
      "lstrip": false,
      "rstrip": false,
      "normalized": true,
      "special": true
    },
    {
      "id": 13,
      "content": "ف+",
      "single_word": true,
      "lstrip": false,
      "rstrip": false,
      "normalized": true,
      "special": true
    },
    {
      "id": 14,
      "content": "+كم",
      "single_word": true,
      "lstrip": false,
      "rstrip": false,
      "normalized": true,
      "special": true
    },
    {
      "id": 15,
      "content": "+كن",
      "single_word": true,
      "lstrip": false,
      "rstrip": false,
      "normalized": true,
      "special": true
    },
    {
      "id": 16,
      "content": "+ت",
      "single_word": true,
      "lstrip": false,
      "rstrip": false,
      "normalized": true,
      "special": true
    },
    {
      "id": 17,
      "content": "[بريد]",
      "single_word": true,
      "lstrip": false,
      "rstrip": false,
      "normalized": true,
      "special": true
    },
    {
      "id": 18,
      "content": "[مستخدم]",
      "single_word": true,
      "lstrip": false,
      "rstrip": false,
      "normalized": true,
      "special": true
    },
    {
      "id": 19,
      "content": "لل+",
      "single_word": true,
      "lstrip": false,
      "rstrip": false,
      "normalized": true,
      "special": true
    },
    {
      "id": 20,
      "content": "ال+",
      "single_word": true,
      "lstrip": false,
      "rstrip": false,
      "normalized": true,
      "special": true
    },
    {
      "id": 21,
      "content": "[رابط]",
      "single_word": true,
      "lstrip": false,
      "rstrip": false,
      "normalized": true,
      "special": true
    },
    {
      "id": 22,
      "content": "س+",
      "single_word": true,
      "lstrip": false,
      "rstrip": false,
      "normalized": true,
      "special": true
    },
    {
      "id": 23,
      "content": "+ان",
      "single_word": true,
      "lstrip": false,
      "rstrip": false,
      "normalized": true,
      "special": true
    },
    {
      "id": 24,
      "content": "+وا",
      "single_word": true,
      "lstrip": false,
      "rstrip": false,
      "normalized": true,
      "special": true
    },
    {
      "id": 25,
      "content": "+ه",
      "single_word": true,
      "lstrip": false,
      "rstrip": false,
      "normalized": true,
      "special": true
    },
    {
      "id": 26,
      "content": "+ون",
      "single_word": true,
      "lstrip": false,
      "rstrip": false,
      "normalized": true,
      "special": true
    },
    {
      "id": 27,
      "content": "+هن",
      "single_word": true,
      "lstrip": false,
      "rstrip": false,
      "normalized": true,
      "special": true
    },
    {
      "id": 28,
      "content": "+ين",
      "single_word": true,
      "lstrip": false,
      "rstrip": false,
      "normalized": true,
      "special": true
    },
    {
      "id": 29,
      "content": "و+",
      "single_word": true,
      "lstrip": false,
      "rstrip": false,
      "normalized": true,
      "special": true
    },
    {
      "id": 30,
      "content": "ك+",
      "single_word": true,
      "lstrip": false,
      "rstrip": false,
      "normalized": true,
      "special": true
    },
    {
      "id": 31,
      "content": "[PAD]",
      "single_word": false,
      "lstrip": false,
      "rstrip": false,
      "normalized": false,
      "special": true
    },
    {
      "id": 32,
      "content": "[UNK]",
      "single_word": false,
      "lstrip": false,
      "rstrip": false,
      "normalized": false,
      "special": true
    },
    {
      "id": 33,
      "content": "[CLS]",
      "single_word": false,
      "lstrip": false,
      "rstrip": false,
      "normalized": false,
      "special": true
    },
    {
      "id": 34,
      "content": "[SEP]",
      "single_word": false,
      "lstrip": false,
      "rstrip": false,
      "normalized": false,
      "special": true
    },
    {
      "id": 35,
      "content": "[MASK]",
      "single_word": false,
      "lstrip": false,
      "rstrip": false,
      "normalized": false,
      "special": true
    }
  ],
  "normalizer": {
    "type": "BertNormalizer",
    "clean_text": true,
    "handle_chinese_chars": true,
    "strip_accents": null,
    "lowercase": false
  },
  "pre_tokenizer": {
    "type": "BertPreTokenizer"
  },
  "post_processor": {
    "type": "TemplateProcessing",
    "single": [
      {
        "SpecialToken": {
          "id": "[CLS]",
          "type_id": 0
        }
      },
      {
        "Sequence": {
          "id": "A",
          "type_id": 0
        }
      },
      {
        "SpecialToken": {
          "id": "[SEP]",
          "type_id": 0
        }
      }
    ],
    "pair": [
      {
        "SpecialToken": {
          "id": "[CLS]",
          "type_id": 0
        }
      },
      {
        "Sequence": {
          "id": "A",
          "type_id": 0
        }
      },
      {
        "SpecialToken": {
          "id": "[SEP]",
          "type_id": 0
        }
      },
      {
        "Sequence": {
          "id": "B",
          "type_id": 1
        }
      },
      {
        "SpecialToken": {
          "id": "[SEP]",
          "type_id": 1
        }
      }
    ],
    "special_tokens": {
      "[CLS]": {
        "id": "[CLS]",
        "ids": [
          33
        ],
        "tokens": [
          "[CLS]"
        ]
      },
      "[SEP]": {
        "id": "[SEP]",
        "ids": [
          34
        ],
        "tokens": [
          "[SEP]"
        ]
      }
    }
  },
  "decoder": {
    "type": "WordPiece",
    "prefix": "##",
    "cleanup": true
  },
  "model": {
    "type": "WordPiece",
    "unk_token": "[UNK]",
    "continuing_subword_prefix": "##",
    "max_input_chars_per_word": 100,
    "vocab": {
      "+ا": 0,
      "+ك": 1,
      "ب+": 2,
      "+هم": 3,
      "+ات": 4,
      "+ي": 5,
      "ل+": 6,
      "+هما": 7,
      "+نا": 8,
      "+ن": 9,
      "+ها": 10,
      "+كما": 11,
      "+ة": 12,
      "ف+": 13,
      "+كم": 14,
      "+كن": 15,
      "+ت": 16,
      "[بريد]": 17,
      "[مستخدم]": 18,
      "لل+": 19,
      "ال+": 20,
      "[رابط]": 21,
      "س+": 22,
      "+ان": 23,
      "+وا": 24,
      "+ه": 25,
      "+ون": 26,
      "+هن": 27,
      "+ين": 28,
      "و+": 29,
      "ك+": 30,
      "[PAD]": 31,
      "[UNK]": 32,
      "[CLS]": 33,
      "[SEP]": 34,
      "[MASK]": 35,
      "!": 36,
      "\"": 37,
      "#": 38,
      "$": 39,
      "%": 40,
      "'": 41,
      "(": 42,
      ")": 43,
      "*": 44,
      "+": 45,
      ",": 46,
      "-": 47,
      ".": 48,
      "0": 49,
      "1": 50,
      "2": 51,
      "3": 52,
      "4": 53,
      "5": 54,
      "6": 55,
      "7": 56,
      "8": 57,
      "9": 58,
      ":": 59,
      "<": 60,
      "=": 61,
      ">": 62,
      "?": 63,
      "@": 64,
      "A": 65,
      "B": 66,
      "C": 67,
      "D": 68,
      "E": 69,
      "F": 70,
      "G": 71,
      "H": 72,
      "I": 73,
      "J": 74,
      "K": 75,
      "L": 76,
      "M": 77,
      "N": 78,
      "O": 79,
      "P": 80,
      "Q": 81,
      "R": 82,
      "S": 83,
      "T": 84,
      "U": 85,
      "V": 86,
      "W": 87,
      "X": 88,
      "Y": 89,
      "Z": 90,
      "[": 91,
      "\\": 92,
      "]": 93,
      "^": 94,
      "_": 95,
      "`": 96,
      "a": 97,
      "b": 98,
      "c": 99,
      "d": 100,
      "e": 101,
      "f": 102,
      "g": 103,
      "h": 104,
      "i": 105,
      "j": 106,
      "k": 107,
      "l": 108,
      "m": 109,
      "n": 110,
      "o": 111,
      "p": 112,
      "q": 113,
      "r": 114,
      "s": 115,
      "t": 116,
      "u": 117,
      "v": 118,
      "w": 119,
      "x": 120,
      "y": 121,
      "z": 122,
      "{": 123,
      "|": 124,
      "}": 125,
      "~": 126,
      "«": 127,
      "·": 128,
      "»": 129,
      "،": 130,
      "؛": 131,
      "؟": 132,
      "ء": 133,
      "آ": 134,
      "أ": 135,
      "ؤ": 136,
      "إ": 137,
      "ئ": 138,
      "ا": 139,
      "ب": 140,
      "ة": 141,
      "ت": 142,
      "ث": 143,
      "ج": 144,
      "ح": 145,
      "خ": 146,
      "د": 147,
      "ذ": 148,
      "ر": 149,
      "ز": 150,
      "س": 151,
      "ش": 152,
      "ص": 153,
      "ض": 154,
      "ط": 155,
      "ظ": 156,
      "ع": 157,
      "غ": 158,
      "ف": 159,
      "ق": 160,
      "ك": 161,
      "ل": 162,
      "م": 163,
      "ن": 164,
      "ه": 165,
      "و": 166,
      "ى": 167,
      "ي": 168,
      "ٓ": 169,
      "ٔ": 170,
      "ٕ": 171,
      "ٖ": 172,
      "ٗ": 173,
      "ٙ": 174,
      "ٚ": 175,
      "ٜ": 176,
      "ٝ": 177,
      "ٞ": 178,
      "٪": 179,
      "٫": 180,
      "٬": 181,
      "ۚ": 182,
      "–": 183,
      "—": 184,
      "‘": 185,
      "’": 186,
      "“": 187,
      "”": 188,
      "…": 189,
      "##e": 190,
      "##s": 191,
      "##u": 192,
      "##r": 193,
      "##ج": 194,
      "##ا": 195,
      "##ل": 196,
      "##خ": 197,
      "##ق": 198,
      "##م": 199,
      "##ش": 200,
      "##9": 201,
      "##4": 202,
      "##2": 203,
      "##3": 204,
      "##7": 205,
      "##0": 206,
      "##6": 207,
      "##1": 208,
      "##ي": 209,
      "##ت": 210,
      "##ر": 211,
      "##t": 212,
      "##a": 213,
      "##m": 214,
      "##5": 215,
      "##8": 216,
      "##ك": 217,
      "##و": 218,
      "##ن": 219,
      "##س": 220,
      "##ب": 221,
      "##ئ": 222,
      "##ه": 223,
      "##ز": 224,
      "##أ": 225,
      "##ذ": 226,
      "##ح": 227,
      "##د": 228,
      "##b": 229,
      "##i": 230,
      "##l": 231,
      "##d": 232,
      "##n": 233,
      "##U": 234,
      "##R": 235,
      "##I": 236,
      "##E": 237,
      "##X": 238,
      "##o": 239,
      "##k": 240,
      "##ص": 241,
      "##ع": 242,
      "##A": 243,
      "##S": 244,
      "##ط": 245,
      "##ف": 246,
      "##ى": 247,
      "##M": 248,
      "##F": 249,
      "##إ": 250,
      "##ة": 251,
      "##ؤ": 252,
      "##غ": 253,
      "##p": 254,
      "##N": 255,
      "##V": 256,
      "##O": 257,
      "##ث": 258,
      "##y": 259,
      "##آ": 260,
      "##c": 261,
      "##ظ": 262,
      "##T": 263,
      "##C": 264,
      "##L": 265,
      "##v": 266,
      "##h": 267,
      "##G": 268,
      "##ض": 269,
      "##g": 270,
      "##H": 271,
      "##W": 272,
      "##f": 273,
      "##B": 274,
      "##w": 275,
      "##ء": 276,
      "##K": 277,
      "##x": 278,
      "##D": 279,
      "##j": 280,
      "##Z": 281,
      "##z": 282,
      "##q": 283,
      "##P": 284,
      "##Q": 285,
      "##Y": 286,
      "##J": 287,
      "ال": 288,
      "في": 289,
      "من": 290,
      "ات": 291,
      "##ال": 292,
      "##ار": 293,
      "##ان": 294,
      "##لى": 295,
      "##ام": 296,
      "##ير": 297,
      "ها": 298,
      "##ري": 299,
      "##لي": 300,
      "##اد": 301,
      "أن": 302,
      "##ين": 303,
      "##ول": 304,
      "##اب": 305,
      "على": 306,
      "##اء": 307,
      "ين": 308,
      "##ست": 309,
      "##ائ": 310,
      "##ور": 311,
      "ان": 312,
      "##ون": 313,
      "##اع": 314,
      "مع": 315,
      "##تي": 316,
      "##اف": 317,
      "##دي": 318,
      "أم": 319,
      "##بي": 320,
      "##وم": 321,
      "عن": 322,
      "##ما": 323,
      "##اس": 324,
      "##اق": 325,
      "مح": 326,
      "هذ": 327,
      "##مي": 328,
      "##وي": 329,
      "مو": 330,
      "ما": 331,
      "هم": 332,
      "مر": 333,
      "##اح": 334,
      "التي": 335,
      "إلى": 336,
      "مت": 337,
      "##ني": 338,
      "##لك": 339,
      "##اني": 340,
      "تع": 341,
      "است": 342,
      "##يس": 343,
      "مس": 344,
      "##تم": 345,
      "##يد": 346,
      "أو": 347,
      "إن": 348,
      "مج": 349,
      "تح": 350,
      "##عد": 351,
      "##اج": 352,
      "##ود": 353,
      "مد": 354,
      "##بر": 355,
      "##قي": 356,
      "مش": 357,
      "نا": 358,
      "عام": 359,
      "عم": 360,
      "الذ": 361,
      "##يل": 362,
      "لا": 363,
      "##رب": 364,
      "أس": 365,
      "##رك": 366,
      "##دم": 367,
      "##الي": 368,
      "كان": 369,
      "##اي": 370,
      "مص": 371,
      "##كن": 372,
      "##وع": 373,
      "##بل": 374,
      "##اه": 375,
      "مق": 376,
      "الذي": 377,
      "##تر": 378,
      "##اص": 379,
      "##اط": 380,
      "تو": 381,
      "رئ": 382,
      "##حد": 383,
      "ون": 384,
      "تق": 385,
      "##لم": 386,
      "هذا": 387,
      "الى": 388,
      "##اك": 389,
      "##لس": 390,
      "تن": 391,
      "سي": 392,
      "##بد": 393,
      "عر": 394,
      "##اري": 395,
      "مست": 396,
      "##في": 397,
      "##عل": 398,
      "أك": 399,
      "##يم": 400,
      "رئيس": 401,
      "كل": 402,
      "##خر": 403,
      "##لال": 404,
      "هذه": 405,
      "بل": 406,
      "بين": 407,
      "تم": 408,
      "##سي": 409,
      "وا": 410,
      "##ضي": 411,
      "##مد": 412,
      "بن": 413,
      "بعد": 414,
      "وز": 415,
      "قد": 416,
      "##ديد": 417,
      "حي": 418,
      "هو": 419,
      "##كر": 420,
      "علي": 421,
      "##از": 422,
      "إس": 423,
      "ذلك": 424,
      "##وري": 425,
      "##شر": 426,
      "دول": 427,
      "مب": 428,
      "##لف": 429,
      "##دد": 430,
      "مؤ": 431,
      "أع": 432,
      "قال": 433,
      "##وب": 434,
      "فر": 435,
      "##وق": 436,
      "يوم": 437,
      "##ائي": 438,
      "يت": 439,
      "##ات": 440,
      "تج": 441,
      "انت": 442,
      "هي": 443,
      "تر": 444,
      "##هد": 445,
      "أي": 446,
      "##مل": 447,
      "بر": 448,
      "شر": 449,
      "##هر": 450,
      "##صل": 451,
      "##ادي": 452,
      "##طل": 453,
      "##لا": 454,
      "خلال": 455,
      "##ريق": 456,
      "جم": 457,
      "##بن": 458,
      "عبد": 459,
      "يع": 460,
      "حك": 461,
      "لم": 462,
      "##قد": 463,
      "##جي": 464,
      "سل": 465,
      "20": 466,
      "##قت": 467,
      "##زي": 468,
      "##هم": 469,
      "مخ": 470,
      "قر": 471,
      "##سب": 472,
      "##كي": 473,
      "##وف": 474,
      "أح": 475,
      "تش": 476,
      "##رف": 477,
      "##من": 478,
      "صح": 479,
      "##عي": 480,
      "##ثر": 481,
      "##اسي": 482,
      "##قل": 483,
      "بي": 484,
      "##كون": 485,
      "عمل": 486,
      "##له": 487,
      "##تب": 488,
      "بع": 489,
      "نف": 490,
      "أول": 491,
      "##سم": 492,
      "أر": 493,
      "##اض": 494,
      "تأ": 495,
      "سب": 496,
      "هن": 497,
      "##يف": 498,
      "##كل": 499,
      "أج": 500,
      "سن": 501,
      "##ارك": 502,
      "##ولي": 503,
      "##ثل": 504,
      "##مر": 505,
      "كما": 506,
      "##در": 507,
      "مك": 508,
      "تس": 509,
      "تص": 510,
      "سع": 511,
      "اع": 512,
      "مجلس": 513,
      "خط": 514,
      "##فر": 515,
      "##عب": 516,
      "نظ": 517,
      "عل": 518,
      "##وى": 519,
      "##تى": 520,
      "شرك": 521,
      "##ضاف": 522,
      "لكن": 523,
      "عال": 524,
      "##خل": 525,
      "##راء": 526,
      "حيث": 527,
      "تت": 528,
      "ري": 529,
      "تد": 530,
      "اح": 531,
      "أش": 532,
      "يق": 533,
      "محمد": 534,
      "إد": 535,
      "##بير": 536,
      "أص": 537,
      "بد": 538,
      "غير": 539,
      "##وس": 540,
      "در": 541,
      "##امي": 542,
      "##مال": 543,
      "##طق": 544,
      "بعض": 545,
      "جن": 546,
      "عربي": 547,
      "يم": 548,
      "##يني": 549,
      "##قيق": 550,
      "قط": 551,
      "##خص": 552,
      "لبن": 553,
      "قبل": 554,
      "##اعي": 555,
      "حكوم": 556,
      "يح": 557,
      "جه": 558,
      "تف": 559,
      "خاص": 560,
      "أخ": 561,
      "منطق": 562,
      "تط": 563,
      "مل": 564,
      "قو": 565,
      "حر": 566,
      "جديد": 567,
      "وط": 568,
      "مم": 569,
      "##لب": 570,
      "دع": 571,
      "وج": 572,
      "دور": 573,
      "##ابع": 574,
      "##وز": 575,
      "أب": 576,
      "نق": 577,
      "أحد": 578,
      "عبدال": 579,
      "اج": 580,
      "عدد": 581,
      "أف": 582,
      "حتى": 583,
      "حق": 584,
      "##ادر": 585,
      "شي": 586,
      "##كت": 587,
      "##امل": 588,
      "مه": 589,
      "جمي": 590,
      "أد": 591,
      "##اعد": 592,
      "منت": 593,
      "كبير": 594,
      "##فع": 595,
      "الله": 596,
      "##اول": 597,
      "أمير": 598,
      "حد": 599,
      "##جن": 600,
      "حس": 601,
      "##لق": 602,
      "##ائل": 603,
      "##ضع": 604,
      "##ثير": 605,
      "عند": 606,
      "##الب": 607,
      "##وج": 608,
      "##صر": 609,
      "فريق": 610,
      "أكثر": 611,
      "نه": 612,
      "مصر": 613,
      "##وت": 614,
      "مرك": 615,
      "نح": 616,
      "كر": 617,
      "إدار": 618,
      "##وان": 619,
      "شب": 620,
      "##وني": 621,
      "##تل": 622,
      "##ابق": 623,
      "##ظم": 624,
      "##طر": 625,
      "بح": 626,
      "ملي": 627,
      "##ودي": 628,
      "19": 629,
      "جميع": 630,
      "مف": 631,
      "ثاني": 632,
      "##مار": 633,
      "##ابي": 634,
      "دا": 635,
      "##ليم": 636,
      "حال": 637,
      "##وح": 638,
      "قي": 639,
      "##ذا": 640,
      "آخر": 641,
      "اجتم": 642,
      "يج": 643,
      "##ضح": 644,
      "وزير": 645,
      "أخر": 646,
      "##ند": 647,
      "إسر": 648,
      "أه": 649,
      "عد": 650,
      "نج": 651,
      "عملي": 652,
      "أمس": 653,
      "اقت": 654,
      "عق": 655,
      "وف": 656,
      "وزار": 657,
      "يكون": 658,
      "##نى": 659,
      "أخرى": 660,
      "##لاث": 661,
      "ثلاث": 662,
      "اخ": 663,
      "زي": 664,
      "نسب": 665,
      "دولي": 666,
      "##طي": 667,
      "##زم": 668,
      "##جل": 669,
      "أكد": 670,
      "خار": 671,
      "سوري": 672,
      "##افي": 673,
      "هناك": 674,
      "مي": 675,
      "سم": 676,
      "اتح": 677,
      "ار": 678,
      "##وار": 679,
      "##قر": 680,
      "أمر": 681,
      "ليس": 682,
      "##اعب": 683,
      "إج": 684,
      "سياسي": 685,
      "نفس": 686,
      "عالم": 687,
      "##وض": 688,
      "مدين": 689,
      "شع": 690,
      "##يب": 691,
      "##ائر": 692,
      "مط": 693,
      "مشر": 694,
      "إي": 695,
      "حز": 696,
      "يتم": 697,
      "##قع": 698,
      "مدير": 699,
      "##افظ": 700,
      "##ائم": 701,
      "متحد": 702,
      "جام": 703,
      "##قف": 704,
      "200": 705,
      "إعل": 706,
      "اتحاد": 707,
      "رس": 708,
      "##تف": 709,
      "مجم": 710,
      "##اهر": 711,
      "وطني": 712,
      "مثل": 713,
      "ثم": 714,
      "##ضاء": 715,
      "##ريب": 716,
      "##بح": 717,
      "طريق": 718,
      "يش": 719,
      "قرار": 720,
      "هما": 721,
      "لجن": 722,
      "##ارس": 723,
      "حول": 724,
      "شكل": 725,
      "فلس": 726,
      "مركز": 727,
      "##رح": 728,
      "##خب": 729,
      "كثير": 730,
      "منذ": 731,
      "تك": 732,
      "سعودي": 733,
      "اقتص": 734,
      "##رض": 735,
      "شخص": 736,
      "##وط": 737,
      "##يش": 738,
      "وقت": 739,
      "إسل": 740,
      "وس": 741,
      "لاعب": 742,
      "دون": 743,
      "مشروع": 744,
      "يد": 745,
      "يست": 746,
      "ماضي": 747,
      "اعت": 748,
      "انتخ": 749,
      "##لح": 750,
      "ول": 751,
      "##انب": 752,
      "ثق": 753,
      "##صف": 754,
      "##سس": 755,
      "مخت": 756,
      "رو": 757,
      "##قاء": 758,
      "ام": 759,
      "محافظ": 760,
      "عشر": 761,
      "جد": 762,
      "##شف": 763,
      "جز": 764,
      "##امج": 765,
      "هد": 766,
      "رأ": 767,
      "أضاف": 768,
      "قان": 769,
      "عدم": 770,
      "فلسط": 771,
      "أور": 772,
      "عراق": 773,
      "##ائب": 774,
      "##اث": 775,
      "بط": 776,
      "201": 777,
      "سابق": 778,
      "##قط": 779,
      "ترك": 780,
      "##وك": 781,
      "وضع": 782,
      "مشارك": 783,
      "##ضل": 784,
      "جامع": 785,
      "أمن": 786,
      "تحقيق": 787,
      "##ريد": 788,
      "رغ": 789,
      "يمكن": 790,
      "تب": 791,
      "قطاع": 792,
      "مسؤ": 793,
      "تخ": 794,
      "أحمد": 795,
      "تغ": 796,
      "خدم": 797,
      "##اش": 798,
      "أق": 799,
      "مجموع": 800,
      "الذين": 801,
      "ير": 802,
      "##سك": 803,
      "سبب": 804,
      "##يري": 805,
      "صن": 806,
      "سلط": 807,
      "##كتور": 808,
      "##ثن": 809,
      "لبنان": 810,
      "أعمال": 811,
      "واح": 812,
      "حزب": 813,
      "##وبي": 814,
      "حض": 815,
      "##فاق": 816,
      "##زيز": 817,
      "يس": 818,
      "مؤسس": 819,
      "دكتور": 820,
      "##دى": 821,
      "قدم": 822,
      "##اطن": 823,
      "##اضي": 824,
      "أسب": 825,
      "واحد": 826,
      "##حل": 827,
      "##فل": 828,
      "##اريخ": 829,
      "كوي": 830,
      "جانب": 831,
      "##رق": 832,
      "طبي": 833,
      "##تح": 834,
      "##ارا": 835,
      "##صول": 836,
      "إضاف": 837,
      "أرب": 838,
      "شعب": 839,
      "إلي": 840,
      "إر": 841,
      "نو": 842,
      "##ضا": 843,
      "أميركي": 844,
      "##كد": 845,
      "تكون": 846,
      "تلك": 847,
      "لي": 848,
      "##تاج": 849,
      "بلد": 850,
      "فتر": 851,
      "صف": 852,
      "##ويل": 853,
      "##رير": 854,
      "مز": 855,
      "نظام": 856,
      "ني": 857,
      "فلسطيني": 858,
      "انتخاب": 859,
      "إق": 860,
      "مالي": 861,
      "حل": 862,
      "إع": 863,
      "##ائد": 864,
      "لبناني": 865,
      "##الح": 866,
      "مصري": 867,
      "مواطن": 868,
      "هيئ": 869,
      "أمام": 870,
      "##ديم": 871,
      "إسرائي": 872,
      "أخير": 873,
      "مجال": 874,
      "أمري": 875,
      "##اذ": 876,
      "علاق": 877,
      "جر": 878,
      "##اتي": 879,
      "ملك": 880,
      "##فيذ": 881,
      "خلي": 882,
      "أبو": 883,
      "نت": 884,
      "مبارا": 885,
      "##تمع": 886,
      "##شار": 887,
      "##اسب": 888,
      "##علن": 889,
      "##اجه": 890,
      "طلب": 891,
      "##00": 892,
      "عالمي": 893,
      "حج": 894,
      "نائب": 895,
      "تنفيذ": 896,
      "##أن": 897,
      "مليون": 898,
      "تاريخ": 899,
      "##وير": 900,
      "حالي": 901,
      "رياض": 902,
      "##اون": 903,
      "##اصل": 904,
      "##افق": 905,
      "نقل": 906,
      "##طف": 907,
      "##ايا": 908,
      "اي": 909,
      "##هي": 910,
      "هدف": 911,
      "تست": 912,
      "حيا": 913,
      "##اقع": 914,
      "إلا": 915,
      "مختلف": 916,
      "##واء": 917,
      "بلاد": 918,
      "رب": 919,
      "إير": 920,
      "##الد": 921,
      "مجتمع": 922,
      "##احي": 923,
      "إسرائيلي": 924,
      "ولاي": 925,
      "دعم": 926,
      "إسلامي": 927,
      "##ابل": 928,
      "فرن": 929,
      "شهر": 930,
      "مقبل": 931,
      "مغ": 932,
      "##فض": 933,
      "نس": 934,
      "ذكر": 935,
      "ألف": 936,
      "إنس": 937,
      "قانون": 938,
      "قص": 939,
      "##وال": 940,
      "خص": 941,
      "حرك": 942,
      "خل": 943,
      "##فت": 944,
      "تل": 945,
      "رغم": 946,
      "صور": 947,
      "##مس": 948,
      "برن": 949,
      "اقتصادي": 950,
      "قاد": 951,
      "أربع": 952,
      "سك": 953,
      "كت": 954,
      "##ادل": 955,
      "فيما": 956,
      "علم": 957,
      "دم": 958,
      "سيار": 959,
      "شباب": 960,
      "طالب": 961,
      "نادي": 962,
      "شه": 963,
      "سر": 964,
      "وجود": 965,
      "دولار": 966,
      "مستوى": 967,
      "قام": 968,
      "فن": 969,
      "حكم": 970,
      "قدر": 971,
      "عمر": 972,
      "##آن": 973,
      "نحو": 974,
      "##شي": 975,
      "##ضر": 976,
      "خارجي": 977,
      "عندما": 978,
      "منتخب": 979,
      "اتفاق": 980,
      "دراس": 981,
      "عبر": 982,
      "وزراء": 983,
      "##ريم": 984,
      "إذا": 985,
      "دين": 986,
      "عب": 987,
      "مما": 988,
      "شيخ": 989,
      "كم": 990,
      "أغ": 991,
      "برنامج": 992,
      "احت": 993,
      "بيان": 994,
      "##قى": 995,
      "##وص": 996,
      "حين": 997,
      "سلام": 998,
      "تحت": 999,
      "آل": 1000,
      "كي": 1001,
      "حدي": 1002,
      "أجل": 1003,
      "داخل": 1004,
      "مسؤول": 1005,
      "##كم": 1006,
      "جمعي": 1007,
      "نظر": 1008,
      "بري": 1009,
      "أشار": 1010,
      "سف": 1011,
      "أولى": 1012,
      "##قب": 1013,
      "ضر": 1014,
      "عبدالله": 1015,
      "قن": 1016,
      "رج": 1017,
      "##ليل": 1018,
      "لقاء": 1019,
      "##اسم": 1020,
      "##دام": 1021,
      "##ائيل": 1022,
      "لن": 1023,
      "تعاون": 1024,
      "##سر": 1025,
      "بطول": 1026,
      "##طلق": 1027,
      "اجتماعي": 1028,
      "وحد": 1029,
      "جمه": 1030,
      "تركي": 1031,
      "##تمر": 1032,
      "أما": 1033,
      "ضد": 1034,
      "أيضا": 1035,
      "منظم": 1036,
      "شرط": 1037,
      "اجتماع": 1038,
      "أعلن": 1039,
      "قيم": 1040,
      "دي": 1041,
      "##هل": 1042,
      "تعليم": 1043,
      "عقد": 1044,
      "مساعد": 1045,
      "عرض": 1046,
      "أسر": 1047,
      "تنظ": 1048,
      "هج": 1049,
      "سمو": 1050,
      "عديد": 1051,
      "##بت": 1052,
      "ساع": 1053,
      "صحي": 1054,
      "نش": 1055,
      "إص": 1056,
      "أمريكي": 1057,
      "كتاب": 1058,
      "دف": 1059,
      "##زل": 1060,
      "إجراء": 1061,
      "سنو": 1062,
      "مؤتمر": 1063,
      "استث": 1064,
      "قب": 1065,
      "##زال": 1066,
      "مملك": 1067,
      "حسب": 1068,
      "ذات": 1069,
      "رق": 1070,
      "سوق": 1071,
      "##قبل": 1072,
      "غر": 1073,
      "تقدم": 1074,
      "جاء": 1075,
      "قض": 1076,
      "خر": 1077,
      "##تبر": 1078,
      "حمل": 1079,
      "قياد": 1080,
      "هل": 1081,
      "##مان": 1082,
      "##طار": 1083,
      "بناء": 1084,
      "##عداد": 1085,
      "##ريح": 1086,
      "ثال": 1087,
      "حرب": 1088,
      "معل": 1089,
      "وك": 1090,
      "ثالث": 1091,
      "##سكري": 1092,
      "فقد": 1093,
      "عسكري": 1094,
      "##ستر": 1095,
      "سيد": 1096,
      "##بلغ": 1097,
      "##اغ": 1098,
      "موقع": 1099,
      "الآن": 1100,
      "حما": 1101,
      "جيش": 1102,
      "##صال": 1103,
      "شأن": 1104,
      "مقر": 1105,
      "أوضح": 1106,
      "داخ": 1107,
      "##ارض": 1108,
      "ته": 1109,
      "ألم": 1110,
      "إذ": 1111,
      "وجه": 1112,
      "موج": 1113,
      "أيام": 1114,
      "##طلاق": 1115,
      "فقط": 1116,
      "داخلي": 1117,
      "تض": 1118,
      "يؤ": 1119,
      "جو": 1120,
      "أعضاء": 1121,
      "بدأ": 1122,
      "##حي": 1123,
      "##بع": 1124,
      "سياس": 1125,
      "حديث": 1126,
      "جمع": 1127,
      "استخ": 1128,
      "##اهم": 1129,
      "بلغ": 1130,
      "10": 1131,
      "##جان": 1132,
      "##عى": 1133,
      "مدر": 1134,
      "مرحل": 1135,
      "اش": 1136,
      "##عم": 1137,
      "##اطي": 1138,
      "بحث": 1139,
      "عض": 1140,
      "##ارب": 1141,
      "كذ": 1142,
      "شخصي": 1143,
      "يخ": 1144,
      "فوز": 1145,
      "##أس": 1146,
      "تقديم": 1147,
      "ست": 1148,
      "شري": 1149,
      "فني": 1150,
      "أمني": 1151,
      "الت": 1152,
      "##مع": 1153,
      "زياد": 1154,
      "أرض": 1155,
      "أسبوع": 1156,
      "أكبر": 1157,
      "##اشر": 1158,
      "##طاني": 1159,
      "أزم": 1160,
      "##اهد": 1161,
      "##ائز": 1162,
      "مقابل": 1163,
      "مشير": 1164,
      "إم": 1165,
      "يجب": 1166,
      "يف": 1167,
      "##اجع": 1168,
      "واقع": 1169,
      "نص": 1170,
      "موض": 1171,
      "##غل": 1172,
      "##احب": 1173,
      "مناط": 1174,
      "قضي": 1175,
      "كويت": 1176,
      "كن": 1177,
      "كلي": 1178,
      "كلم": 1179,
      "##ائق": 1180,
      "نهاي": 1181,
      "##ذكر": 1182,
      "##ظر": 1183,
      "يص": 1184,
      "مهم": 1185,
      "مكتب": 1186,
      "تابع": 1187,
      "إمار": 1188,
      "محلي": 1189,
      "معلوم": 1190,
      "صالح": 1191,
      "فرص": 1192,
      "حقوق": 1193,
      "مناطق": 1194,
      "حسن": 1195,
      "##شح": 1196,
      "نشر": 1197,
      "كذلك": 1198,
      "زيار": 1199,
      "دوري": 1200,
      "14": 1201,
      "15": 1202,
      "##داد": 1203,
      "مكان": 1204,
      "لدي": 1205,
      "##كس": 1206,
      "تطوير": 1207,
      "مناسب": 1208,
      "نم": 1209,
      "خبر": 1210,
      "##روف": 1211,
      "موضوع": 1212,
      "رسمي": 1213,
      "##ميز": 1214,
      "تنظيم": 1215,
      "أصبح": 1216,
      "##اوي": 1217,
      "رح": 1218,
      "##ادث": 1219,
      "خارج": 1220,
      "لدى": 1221,
      "رئاس": 1222,
      "عرب": 1223,
      "انته": 1224,
      "حو": 1225,
      "##بار": 1226,
      "##يان": 1227,
      "12": 1228,
      "##تبار": 1229,
      "عامل": 1230,
      "دفاع": 1231,
      "إره": 1232,
      "##رد": 1233,
      "ضمن": 1234,
      "حضور": 1235,
      "##عار": 1236,
      "خصوص": 1237,
      "##علق": 1238,
      "طل": 1239,
      "خمس": 1240,
      "شرق": 1241,
      "صاحب": 1242,
      "أفضل": 1243,
      "تز": 1244,
      "##سط": 1245,
      "تنمي": 1246,
      "استثمار": 1247,
      "مليار": 1248,
      "يل": 1249,
      "إعاد": 1250,
      "استمر": 1251,
      "لو": 1252,
      "##الف": 1253,
      "صب": 1254,
      "ناس": 1255,
      "روسي": 1256,
      "بار": 1257,
      "جنوب": 1258,
      "رجال": 1259,
      "يقول": 1260,
      "##بيل": 1261,
      "##جر": 1262,
      "اتصال": 1263,
      "استخدام": 1264,
      "حاج": 1265,
      "عود": 1266,
      "نحن": 1267,
      "قائم": 1268,
      "وسط": 1269,
      "كامل": 1270,
      "إنج": 1271,
      "مث": 1272,
      "##كا": 1273,
      "وق": 1274,
      "##ولى": 1275,
      "ديم": 1276,
      "أل": 1277,
      "معارض": 1278,
      "##افس": 1279,
      "##جد": 1280,
      "مال": 1281,
      "ذه": 1282,
      "##اير": 1283,
      "##ومي": 1284,
      "أوروبي": 1285,
      "##يار": 1286,
      "إنتاج": 1287,
      "##اكم": 1288,
      "نتي": 1289,
      "محكم": 1290,
      "##ثناء": 1291,
      "##قق": 1292,
      "نوع": 1293,
      "سوريا": 1294,
      "مواجه": 1295,
      "##ارع": 1296,
      "معد": 1297,
      "إسرائيل": 1298,
      "رفع": 1299,
      "نقط": 1300,
      "نتيج": 1301,
      "##وه": 1302,
      "أمين": 1303,
      "##غير": 1304,
      "مسلم": 1305,
      "دست": 1306,
      "حص": 1307,
      "##طفال": 1308,
      "قتل": 1309,
      "إنسان": 1310,
      "بداي": 1311,
      "رم": 1312,
      "ارت": 1313,
      "منص": 1314,
      "كاف": 1315,
      "فرنسي": 1316,
      "عراقي": 1317,
      "##وء": 1318,
      "زر": 1319,
      "إيج": 1320,
      "نهائي": 1321,
      "أطفال": 1322,
      "##اصر": 1323,
      "##ديل": 1324,
      "جمهوري": 1325,
      "درج": 1326,
      "إبر": 1327,
      "مض": 1328,
      "إح": 1329,
      "فعل": 1330,
      "شهد": 1331,
      "عبدالع": 1332,
      "مشت": 1333,
      "رؤ": 1334,
      "إصاب": 1335,
      "فع": 1336,
      "بلدي": 1337,
      "ألماني": 1338,
      "ثقاف": 1339,
      "رد": 1340,
      "مشكل": 1341,
      "وفق": 1342,
      "##اتب": 1343,
      "##ابط": 1344,
      "حم": 1345,
      "صع": 1346,
      "##قال": 1347,
      "كون": 1348,
      "وطن": 1349,
      "ثور": 1350,
      "تقرير": 1351,
      "##ضيف": 1352,
      "صحيف": 1353,
      "عبدالعزيز": 1354,
      "##حاب": 1355,
      "رفض": 1356,
      "عين": 1357,
      "##تن": 1358,
      "##اهيم": 1359,
      "عاص": 1360,
      "وصول": 1361,
      "حري": 1362,
      "فتح": 1363,
      "##خذ": 1364,
      "مئ": 1365,
      "بريطاني": 1366,
      "##باء": 1367,
      "ضرور": 1368,
      "مياه": 1369,
      "طاق": 1370,
      "مصادر": 1371,
      "أهمي": 1372,
      "حف": 1373,
      "أسعار": 1374,
      "اه": 1375,
      "##نت": 1376,
      "##ائج": 1377,
      "قادم": 1378,
      "يأ": 1379,
      "وان": 1380,
      "عضو": 1381,
      "دفع": 1382,
      "##امن": 1383,
      "مدني": 1384,
      "وكال": 1385,
      "كشف": 1386,
      "اق": 1387,
      "طب": 1388,
      "مطل": 1389,
      "حوار": 1390,
      "نتائج": 1391,
      "اسم": 1392,
      "مستقبل": 1393,
      "##سى": 1394,
      "11": 1395,
      "رع": 1396,
      "دخ": 1397,
      "##مالي": 1398,
      "##قيم": 1399,
      "يو": 1400,
      "##ظاهر": 1401,
      "مطالب": 1402,
      "##هداف": 1403,
      "لح": 1404,
      "صد": 1405,
      "قول": 1406,
      "##ميل": 1407,
      "بنك": 1408,
      "صناع": 1409,
      "رياضي": 1410,
      "##غر": 1411,
      "أنا": 1412,
      "##تفاع": 1413,
      "##ائع": 1414,
      "##جه": 1415,
      "خالد": 1416,
      "##انى": 1417,
      "إخ": 1418,
      "إعلام": 1419,
      "قيام": 1420,
      "موسم": 1421,
      "قاهر": 1422,
      "تدريب": 1423,
      "حصول": 1424,
      "ارتفاع": 1425,
      "تطبي": 1426,
      "##تين": 1427,
      "بير": 1428,
      "##ؤل": 1429,
      "لغ": 1430,
      "مساء": 1431,
      "##هدف": 1432,
      "##ريقي": 1433,
      "##اقب": 1434,
      "موقف": 1435,
      "ريال": 1436,
      "##ارد": 1437,
      "##ارق": 1438,
      "##بدأ": 1439,
      "أمم": 1440,
      "مصدر": 1441,
      "ظل": 1442,
      "ممثل": 1443,
      "##سن": 1444,
      "تجاري": 1445,
      "إطار": 1446,
      "أساسي": 1447,
      "##هز": 1448,
      "##ثار": 1449,
      "نع": 1450,
      "مشاري": 1451,
      "نمو": 1452,
      "مؤكد": 1453,
      "تصريح": 1454,
      "أقل": 1455,
      "##وقع": 1456,
      "قل": 1457,
      "##ؤون": 1458,
      "صباح": 1459,
      "استع": 1460,
      "إعلان": 1461,
      "قم": 1462,
      "وصل": 1463,
      "جلس": 1464,
      "مشاريع": 1465,
      "بو": 1466,
      "25": 1467,
      "سين": 1468,
      "رأس": 1469,
      "##تمام": 1470,
      "حدود": 1471,
      "مرشح": 1472,
      "أبن": 1473,
      "مدرب": 1474,
      "شؤون": 1475,
      "مباشر": 1476,
      "بحري": 1477,
      "18": 1478,
      "محاول": 1479,
      "##حدث": 1480,
      "اخت": 1481,
      "مبارك": 1482,
      "عاد": 1483,
      "##وث": 1484,
      "جهود": 1485,
      "رجل": 1486,
      "ابن": 1487,
      "##ليمي": 1488,
      "شمال": 1489,
      "حب": 1490,
      "سجل": 1491,
      "##بط": 1492,
      "تؤ": 1493,
      "حكومي": 1494,
      "عاصم": 1495,
      "صر": 1496,
      "رص": 1497,
      "مدرس": 1498,
      "اثن": 1499,
      "##كيل": 1500,
      "سوي": 1501,
      "لعب": 1502,
      "##فق": 1503,
      "##ظف": 1504,
      "##جيل": 1505,
      "##دير": 1506,
      "شرقي": 1507,
      "##خرج": 1508,
      "مشترك": 1509,
      "أرد": 1510,
      "##ذر": 1511,
      "جهاز": 1512,
      "جني": 1513,
      "زوج": 1514,
      "يك": 1515,
      "##شاء": 1516,
      "أثناء": 1517,
      "طائر": 1518,
      "بينما": 1519,
      "نصف": 1520,
      "##أل": 1521,
      "تغي": 1522,
      "##ظهر": 1523,
      "ساح": 1524,
      "##الم": 1525,
      "##وا": 1526,
      "سليم": 1527,
      "كتب": 1528,
      "فرق": 1529,
      "تحديد": 1530,
      "##الى": 1531,
      "بيئ": 1532,
      "##يران": 1533,
      "حسين": 1534,
      "##اقش": 1535,
      "إبراهيم": 1536,
      "تجار": 1537,
      "فكر": 1538,
      "نجاح": 1539,
      "##داء": 1540,
      "دائم": 1541,
      "##ازي": 1542,
      "غز": 1543,
      "ثقافي": 1544,
      "##خدم": 1545,
      "اعتبار": 1546,
      "تغيير": 1547,
      "رأي": 1548,
      "يه": 1549,
      "##سل": 1550,
      "##قرار": 1551,
      "##طلب": 1552,
      "أهداف": 1553,
      "إيران": 1554,
      "بيت": 1555,
      "محم": 1556,
      "شيء": 1557,
      "طويل": 1558,
      "كأس": 1559,
      "30": 1560,
      "إحد": 1561,
      "كيف": 1562,
      "##اوز": 1563,
      "##فير": 1564,
      "أهم": 1565,
      "##ثي": 1566,
      "إقام": 1567,
      "تعرض": 1568,
      "مائ": 1569,
      "مرض": 1570,
      "دخول": 1571,
      "منافس": 1572,
      "جيد": 1573,
      "أفر": 1574,
      "كويتي": 1575,
      "حماي": 1576,
      "باسم": 1577,
      "قضايا": 1578,
      "##اسع": 1579,
      "غربي": 1580,
      "جماع": 1581,
      "##طن": 1582,
      "##ايد": 1583,
      "تالي": 1584,
      "يقوم": 1585,
      "13": 1586,
      "جول": 1587,
      "##تا": 1588,
      "اهتمام": 1589,
      "##ضم": 1590,
      "أست": 1591,
      "عص": 1592,
      "شعبي": 1593,
      "ينت": 1594,
      "علمي": 1595,
      "تشكيل": 1596,
      "اقتصاد": 1597,
      "##لسل": 1598,
      "موظف": 1599,
      "هنا": 1600,
      "قوى": 1601,
      "إمك": 1602,
      "أسو": 1603,
      "رابع": 1604,
      "رقم": 1605,
      "##شفى": 1606,
      "سري": 1607,
      "تطبيق": 1608,
      "##ائح": 1609,
      "رعاي": 1610,
      "مستشفى": 1611,
      "##خصص": 1612,
      "تطور": 1613,
      "##تو": 1614,
      "ابت": 1615,
      "##ائف": 1616,
      "دعو": 1617,
      "صل": 1618,
      "متن": 1619,
      "علاج": 1620,
      "فضل": 1621,
      "برامج": 1622,
      "أعلى": 1623,
      "ظهر": 1624,
      "مهر": 1625,
      "وقف": 1626,
      "جب": 1627,
      "##اخ": 1628,
      "خام": 1629,
      "أجهز": 1630,
      "يب": 1631,
      "منتج": 1632,
      "برلم": 1633,
      "متر": 1634,
      "فيلم": 1635,
      "قسم": 1636,
      "مرأ": 1637,
      "##اور": 1638,
      "اكت": 1639,
      "دقيق": 1640,
      "منع": 1641,
      "##طاء": 1642,
      "طلاب": 1643,
      "ماد": 1644,
      "مسلح": 1645,
      "قضاء": 1646,
      "##ساء": 1647,
      "ميد": 1648,
      "##واج": 1649,
      "##هام": 1650,
      "إعلامي": 1651,
      "اذ": 1652,
      "##احث": 1653,
      "##اقي": 1654,
      "تحد": 1655,
      "سلم": 1656,
      "تحرير": 1657,
      "عائل": 1658,
      "##حق": 1659,
      "##وجي": 1660,
      "تون": 1661,
      "حدث": 1662,
      "تقوم": 1663,
      "سكان": 1664,
      "##رى": 1665,
      "وسائل": 1666,
      "##كار": 1667,
      "عمال": 1668,
      "##افع": 1669,
      "افت": 1670,
      "##الغ": 1671,
      "متابع": 1672,
      "أداء": 1673,
      "لقد": 1674,
      "باب": 1675,
      "مدى": 1676,
      "حصل": 1677,
      "نز": 1678,
      "##شط": 1679,
      "##ميس": 1680,
      "فئ": 1681,
      "عالي": 1682,
      "##طيع": 1683,
      "16": 1684,
      "##حيد": 1685,
      "##تمد": 1686,
      "أمور": 1687,
      "معرض": 1688,
      "سعد": 1689,
      "سود": 1690,
      "قوي": 1691,
      "سفير": 1692,
      "صغير": 1693,
      "إنشاء": 1694,
      "كه": 1695,
      "رئيسي": 1696,
      "##تاح": 1697,
      "يز": 1698,
      "يمن": 1699,
      "##ميد": 1700,
      "حفل": 1701,
      "199": 1702,
      "حقي": 1703,
      "تربي": 1704,
      "أهلي": 1705,
      "##تد": 1706,
      "تعامل": 1707,
      "وفد": 1708,
      "خطو": 1709,
      "##مين": 1710,
      "نشاط": 1711,
      "جزء": 1712,
      "مهرجان": 1713,
      "سوف": 1714,
      "أط": 1715,
      "غرف": 1716,
      "أشهر": 1717,
      "اقتر": 1718,
      "حمد": 1719,
      "ولي": 1720,
      "##شل": 1721,
      "إستر": 1722,
      "كف": 1723,
      "توقي": 1724,
      "سعيد": 1725,
      "واضح": 1726,
      "##يط": 1727,
      "إطلاق": 1728,
      "##صار": 1729,
      "استمرار": 1730,
      "شريف": 1731,
      "منح": 1732,
      "خميس": 1733,
      "تقني": 1734,
      "عز": 1735,
      "##ستان": 1736,
      "##دار": 1737,
      "عو": 1738,
      "طفل": 1739,
      "إداري": 1740,
      "إسلام": 1741,
      "##شن": 1742,
      "احتف": 1743,
      "##ابر": 1744,
      "فهد": 1745,
      "صحفي": 1746,
      "تشري": 1747,
      "طرق": 1748,
      "مسؤولي": 1749,
      "17": 1750,
      "فنان": 1751,
      "##دو": 1752,
      "اثنين": 1753,
      "مقدم": 1754,
      "##اوض": 1755,
      "إيراني": 1756,
      "ضغ": 1757,
      "بعيد": 1758,
      "محل": 1759,
      "##اتيجي": 1760,
      "نصر": 1761,
      "مسرح": 1762,
      "ور": 1763,
      "##شق": 1764,
      "اس": 1765,
      "##اوم": 1766,
      "##جز": 1767,
      "تكن": 1768,
      "إنساني": 1769,
      "منزل": 1770,
      "ملكي": 1771,
      "محط": 1772,
      "توفير": 1773,
      "تحدث": 1774,
      "إصل": 1775,
      "شبك": 1776,
      "أحداث": 1777,
      "##تقد": 1778,
      "إنجاز": 1779,
      "جنيه": 1780,
      "بش": 1781,
      "صي": 1782,
      "بور": 1783,
      "متوس": 1784,
      "يعد": 1785,
      "تدخل": 1786,
      "مصلح": 1787,
      "كهرب": 1788,
      "حجم": 1789,
      "وصف": 1790,
      "دستور": 1791,
      "اختي": 1792,
      "الا": 1793,
      "إحدى": 1794,
      "عنوان": 1795,
      "متهم": 1796,
      "##ضاع": 1797,
      "امام": 1798,
      "دبي": 1799,
      "عهد": 1800,
      "أسباب": 1801,
      "تتم": 1802,
      "غد": 1803,
      "##برز": 1804,
      "بيع": 1805,
      "##ؤلاء": 1806,
      "هؤلاء": 1807,
      "هجوم": 1808,
      "مزيد": 1809,
      "##خاص": 1810,
      "##زام": 1811,
      "جائز": 1812,
      "##جع": 1813,
      "وقع": 1814,
      "سير": 1815,
      "مهند": 1816,
      "مصرى": 1817,
      "يون": 1818,
      "غرب": 1819,
      "مواد": 1820,
      "##وبا": 1821,
      "##سا": 1822,
      "احتي": 1823,
      "ليل": 1824,
      "متوسط": 1825,
      "##تع": 1826,
      "يا": 1827,
      "نفط": 1828,
      "أشخاص": 1829,
      "نواب": 1830,
      "مدارس": 1831,
      "##ترف": 1832,
      "##اعر": 1833,
      "محمود": 1834,
      "مذ": 1835,
      "مباري": 1836,
      "ملف": 1837,
      "حقيق": 1838,
      "أفراد": 1839,
      "مراك": 1840,
      "اعتبر": 1841,
      "عقب": 1842,
      "تراجع": 1843,
      "##جاه": 1844,
      "##جم": 1845,
      "سواء": 1846,
      "تعزيز": 1847,
      "أسهم": 1848,
      "##هير": 1849,
      "##اضر": 1850,
      "قرر": 1851,
      "قنا": 1852,
      "حادث": 1853,
      "دو": 1854,
      "اختيار": 1855,
      "قائل": 1856,
      "إستراتيجي": 1857,
      "دخل": 1858,
      "أصحاب": 1859,
      "ماي": 1860,
      "حساب": 1861,
      "##اند": 1862,
      "##ليف": 1863,
      "##هور": 1864,
      "##سع": 1865,
      "خير": 1866,
      "##مبر": 1867,
      "مهندس": 1868,
      "موجود": 1869,
      "##غي": 1870,
      "##لقى": 1871,
      "حقيقي": 1872,
      "حقق": 1873,
      "##جاج": 1874,
      "بيروت": 1875,
      "أمل": 1876,
      "تلف": 1877,
      "##ادى": 1878,
      "آلاف": 1879,
      "غي": 1880,
      "دار": 1881,
      "##كو": 1882,
      "ساد": 1883,
      "مستشار": 1884,
      "خس": 1885,
      "نب": 1886,
      "طر": 1887,
      "مصالح": 1888,
      "قاعد": 1889,
      "قليل": 1890,
      "قطع": 1891,
      "خليج": 1892,
      "حرم": 1893,
      "تأمين": 1894,
      "##يص": 1895,
      "وظ": 1896,
      "سبت": 1897,
      "رسال": 1898,
      "تواصل": 1899,
      "طرف": 1900,
      "خلاف": 1901,
      "معدل": 1902,
      "##بدو": 1903,
      "أسواق": 1904,
      "##برى": 1905,
      "##وسف": 1906,
      "##لكتر": 1907,
      "قريب": 1908,
      "جل": 1909,
      "شك": 1910,
      "نساء": 1911,
      "يعمل": 1912,
      "كريم": 1913,
      "فعالي": 1914,
      "أبناء": 1915,
      "مكاف": 1916,
      "توجه": 1917,
      "##فيق": 1918,
      "يعتبر": 1919,
      "صند": 1920,
      "تنت": 1921,
      "##ميم": 1922,
      "صادر": 1923,
      "##نع": 1924,
      "دائر": 1925,
      "سرع": 1926,
      "دعا": 1927,
      "نياب": 1928,
      "##اظ": 1929,
      "##باني": 1930,
      "خامس": 1931,
      "مبادر": 1932,
      "اف": 1933,
      "ضرب": 1934,
      "معظم": 1935,
      "##اكل": 1936,
      "والد": 1937,
      "آلي": 1938,
      "بدء": 1939,
      "موافق": 1940,
      "مراكز": 1941,
      "قانوني": 1942,
      "##افر": 1943,
      "تجرب": 1944,
      "يتع": 1945,
      "##الج": 1946,
      "طبيعي": 1947,
      "##ارن": 1948,
      "أى": 1949,
      "قلب": 1950,
      "سعر": 1951,
      "##احل": 1952,
      "سابع": 1953,
      "##ولوجي": 1954,
      "##طالي": 1955,
      "مقاوم": 1956,
      "مسابق": 1957,
      "صندوق": 1958,
      "إصلاح": 1959,
      "استف": 1960,
      "##ادم": 1961,
      "يومي": 1962,
      "ربما": 1963,
      "مراقب": 1964,
      "صوت": 1965,
      "##ضمن": 1966,
      "أستاذ": 1967,
      "جعل": 1968,
      "لاف": 1969,
      "ليبي": 1970,
      "جي": 1971,
      "يكن": 1972,
      "ظروف": 1973,
      "##اجم": 1974,
      "رحل": 1975,
      "##جار": 1976,
      "قري": 1977,
      "عناصر": 1978,
      "اغ": 1979,
      "##هيل": 1980,
      "##وين": 1981,
      "يوسف": 1982,
      "أبي": 1983,
      "نقاب": 1984,
      "##ايين": 1985,
      "مؤشر": 1986,
      "##عاء": 1987,
      "عيد": 1988,
      "ناصر": 1989,
      "أوسط": 1990,
      "فل": 1991,
      "تعد": 1992,
      "اتجاه": 1993,
      "سؤ": 1994,
      "نقاط": 1995,
      "معرف": 1996,
      "سعود": 1997,
      "##تش": 1998,
      "قائد": 1999,
      "إلكتر": 2000,
      "شاب": 2001,
      "مرور": 2002,
      "قديم": 2003,
      "##لام": 2004,
      "هند": 2005,
      "سؤال": 2006,
      "احتر": 2007,
      "تعديل": 2008,
      "آسي": 2009,
      "سيطر": 2010,
      "استقرار": 2011,
      "ثلاثاء": 2012,
      "صناعي": 2013,
      "أمان": 2014,
      "طرح": 2015,
      "مسئ": 2016,
      "وحيد": 2017,
      "سجن": 2018,
      "##سبب": 2019,
      "##سيس": 2020,
      "50": 2021,
      "أجن": 2022,
      "##حب": 2023,
      "شعر": 2024,
      "##قدم": 2025,
      "لما": 2026,
      "مسير": 2027,
      "تسجيل": 2028,
      "إرهابي": 2029,
      "جما": 2030,
      "ملعب": 2031,
      "مواقع": 2032,
      "##عر": 2033,
      "احتلال": 2034,
      "استعداد": 2035,
      "تنفيذي": 2036,
      "خروج": 2037,
      "شارع": 2038,
      "إلكتروني": 2039,
      "ديمقر": 2040,
      "##ريض": 2041,
      "بني": 2042,
      "##ياء": 2043,
      "مقرر": 2044,
      "##بيع": 2045,
      "إرهاب": 2046,
      "سياح": 2047,
      "جوي": 2048,
      "##زيع": 2049,
      "##جيه": 2050,
      "ممارس": 2051,
      "لقب": 2052,
      "تمكن": 2053,
      "مخالف": 2054,
      "تدري": 2055,
      "سنوي": 2056,
      "أهل": 2057,
      "##كيد": 2058,
      "يوج": 2059,
      "أوروبا": 2060,
      "##هى": 2061,
      "يقدم": 2062,
      "##ازل": 2063,
      "##اما": 2064,
      "صدر": 2065,
      "نور": 2066,
      "مسي": 2067,
      "##ليق": 2068,
      "مار": 2069,
      "24": 2070,
      "رابط": 2071,
      "شارك": 2072,
      "كبرى": 2073,
      "##هب": 2074,
      "أراضي": 2075,
      "فض": 2076,
      "إل": 2077,
      "تحول": 2078,
      "توزيع": 2079,
      "ايض": 2080,
      "منش": 2081,
      "معروف": 2082,
      "رش": 2083,
      "بقي": 2084,
      "هام": 2085,
      "يذكر": 2086,
      "عليا": 2087,
      "أث": 2088,
      "التزام": 2089,
      "ترب": 2090,
      "سو": 2091,
      "عنف": 2092,
      "معلم": 2093,
      "نووي": 2094,
      "تصل": 2095,
      "إخوان": 2096,
      "رك": 2097,
      "بدل": 2098,
      "ياب": 2099,
      "جاري": 2100,
      "نجم": 2101,
      "يعرف": 2102,
      "تحدي": 2103,
      "أخذ": 2104,
      "تأثير": 2105,
      "اتفاقي": 2106,
      "تأكيد": 2107,
      "روح": 2108,
      "ميل": 2109,
      "رغب": 2110,
      "متع": 2111,
      "ضمان": 2112,
      "##ماء": 2113,
      "##سام": 2114,
      "بحر": 2115,
      "مشاكل": 2116,
      "انف": 2117,
      "أساس": 2118,
      "زع": 2119,
      "تقدير": 2120,
      "مستمر": 2121,
      "مطلوب": 2122,
      "خلف": 2123,
      "مدن": 2124,
      "##سكر": 2125,
      "تسوي": 2126,
      "أسلح": 2127,
      "أموال": 2128,
      "##ضان": 2129,
      "خطر": 2130,
      "سبع": 2131,
      "لافت": 2132,
      "إسباني": 2133,
      "أبرز": 2134,
      "تجمع": 2135,
      "خليجي": 2136,
      "إيجابي": 2137,
      "عزيز": 2138,
      "يصل": 2139,
      "رؤي": 2140,
      "مركزي": 2141,
      "22": 2142,
      "##طلع": 2143,
      "مضيف": 2144,
      "أندي": 2145,
      "ملايين": 2146,
      "صرف": 2147,
      "##ضى": 2148,
      "مساح": 2149,
      "إنما": 2150,
      "فور": 2151,
      "##اعل": 2152,
      "مرتب": 2153,
      "شمالي": 2154,
      "مفاوض": 2155,
      "##باط": 2156,
      "أطر": 2157,
      "نار": 2158,
      "ضبط": 2159,
      "صعب": 2160,
      "إيطالي": 2161,
      "سلطان": 2162,
      "قرب": 2163,
      "فرنسا": 2164,
      "##تماد": 2165,
      "يط": 2166,
      "##اقف": 2167,
      "شديد": 2168,
      "مناقش": 2169,
      "حلول": 2170,
      "21": 2171,
      "ديني": 2172,
      "أبوظ": 2173,
      "جنوبي": 2174,
      "أدى": 2175,
      "تركيا": 2176,
      "تمويل": 2177,
      "إنتر": 2178,
      "تعمل": 2179,
      "##ئل": 2180,
      "كار": 2181,
      "مرت": 2182,
      "معت": 2183,
      "##رر": 2184,
      "اعتماد": 2185,
      "##ازن": 2186,
      "##عو": 2187,
      "قادر": 2188,
      "ديمقراطي": 2189,
      "سلاح": 2190,
      "جمال": 2191,
      "سفر": 2192,
      "مساهم": 2193,
      "لان": 2194,
      "##انين": 2195,
      "تحمل": 2196,
      "اولى": 2197,
      "##ذار": 2198,
      "شرعي": 2199,
      "أوضاع": 2200,
      "لاح": 2201,
      "انخ": 2202,
      "##وات": 2203,
      "##فس": 2204,
      "يريد": 2205,
      "أبوظبي": 2206,
      "تلفزي": 2207,
      "انتهاء": 2208,
      "محاكم": 2209,
      "##صي": 2210,
      "وجد": 2211,
      "عي": 2212,
      "مبلغ": 2213,
      "غذ": 2214,
      "متو": 2215,
      "##ريقيا": 2216,
      "##سيق": 2217,
      "قرن": 2218,
      "عرف": 2219,
      "##ثمر": 2220,
      "##قاد": 2221,
      "جزير": 2222,
      "صحيح": 2223,
      "قراء": 2224,
      "معالج": 2225,
      "برلمان": 2226,
      "يسم": 2227,
      "اسر": 2228,
      "جمهور": 2229,
      "روسيا": 2230,
      "##فاض": 2231,
      "شهاد": 2232,
      "##اتل": 2233,
      "حضر": 2234,
      "لواء": 2235,
      "عقوب": 2236,
      "يغ": 2237,
      "##نا": 2238,
      "هلال": 2239,
      "واشن": 2240,
      "مطار": 2241,
      "##وخ": 2242,
      "جميل": 2243,
      "واشنطن": 2244,
      "يعود": 2245,
      "فوق": 2246,
      "كبار": 2247,
      "##بق": 2248,
      "واسع": 2249,
      "صار": 2250,
      "##عاب": 2251,
      "تاريخي": 2252,
      "يعني": 2253,
      "##ماع": 2254,
      "صو": 2255,
      "أز": 2256,
      "##غان": 2257,
      "23": 2258,
      "##وقر": 2259,
      "باك": 2260,
      "مقارن": 2261,
      "تجاه": 2262,
      "##شد": 2263,
      "خطاب": 2264,
      "##خاذ": 2265,
      "تأسيس": 2266,
      "متحدث": 2267,
      "أطلق": 2268,
      "حرص": 2269,
      "زراع": 2270,
      "شكر": 2271,
      "انتخابي": 2272,
      "##ريف": 2273,
      "حماس": 2274,
      "تعرف": 2275,
      "ميز": 2276,
      "تعتبر": 2277,
      "مارس": 2278,
      "سليمان": 2279,
      "أبد": 2280,
      "يأتي": 2281,
      "##خم": 2282,
      "كاتب": 2283,
      "توجيه": 2284,
      "شراء": 2285,
      "بعدما": 2286,
      "سريع": 2287,
      "كلام": 2288,
      "أجنبي": 2289,
      "فصل": 2290,
      "يور": 2291,
      "غاز": 2292,
      "##مى": 2293,
      "يناير": 2294,
      "##جو": 2295,
      "حوالي": 2296,
      "##اطر": 2297,
      "##تمل": 2298,
      "تقلي": 2299,
      "##اجئ": 2300,
      "فيصل": 2301,
      "##تيب": 2302,
      "غاي": 2303,
      "خادم": 2304,
      "حريري": 2305,
      "##ادق": 2306,
      "##وقراطي": 2307,
      "منصب": 2308,
      "تمام": 2309,
      "بات": 2310,
      "##سين": 2311,
      "اتخاذ": 2312,
      "##بلوم": 2313,
      "دمشق": 2314,
      "غض": 2315,
      "##فيف": 2316,
      "إقليمي": 2317,
      "##ساد": 2318,
      "يوجد": 2319,
      "لماذا": 2320,
      "إشار": 2321,
      "##انا": 2322,
      "##زع": 2323,
      "بالغ": 2324,
      "لازم": 2325,
      "يبدو": 2326,
      "ضم": 2327,
      "##اشد": 2328,
      "جنسي": 2329,
      "اعتر": 2330,
      "##ها": 2331,
      "اشتر": 2332,
      "سبيل": 2333,
      "كوري": 2334,
      "أصل": 2335,
      "تجاوز": 2336,
      "##هول": 2337,
      "فق": 2338,
      "##اطع": 2339,
      "صين": 2340,
      "انس": 2341,
      "تيار": 2342,
      "##وعي": 2343,
      "يتح": 2344,
      "تناول": 2345,
      "صراع": 2346,
      "يتعلق": 2347,
      "مؤخر": 2348,
      "##امر": 2349,
      "##جير": 2350,
      "أصدر": 2351,
      "فاز": 2352,
      "تقول": 2353,
      "مواقف": 2354,
      "دق": 2355,
      "تنسيق": 2356,
      "يمثل": 2357,
      "علوم": 2358,
      "##تلاف": 2359,
      "مكافح": 2360,
      "ضي": 2361,
      "كو": 2362,
      "أت": 2363,
      "ناحي": 2364,
      "مسلسل": 2365,
      "اد": 2366,
      "مان": 2367,
      "شامل": 2368,
      "##رم": 2369,
      "توقع": 2370,
      "متوقع": 2371,
      "2010": 2372,
      "غياب": 2373,
      "عبدالرح": 2374,
      "قوانين": 2375,
      "سبق": 2376,
      "##تان": 2377,
      "بشري": 2378,
      "40": 2379,
      "سالم": 2380,
      "##ديق": 2381,
      "تور": 2382,
      "بغ": 2383,
      "استغ": 2384,
      "معني": 2385,
      "##سان": 2386,
      "قطر": 2387,
      "بتر": 2388,
      "فرض": 2389,
      "##اجد": 2390,
      "##كور": 2391,
      "أفاد": 2392,
      "##ندا": 2393,
      "ضغط": 2394,
      "متعلق": 2395,
      "##دري": 2396,
      "##نان": 2397,
      "إعداد": 2398,
      "##كري": 2399,
      "بان": 2400,
      "عث": 2401,
      "##قبال": 2402,
      "موعد": 2403,
      "معهد": 2404,
      "مقال": 2405,
      "اض": 2406,
      "زمن": 2407,
      "إف": 2408,
      "100": 2409,
      "فان": 2410,
      "اسرائيل": 2411,
      "سياحي": 2412,
      "ربع": 2413,
      "صحف": 2414,
      "احتجاج": 2415,
      "عقاري": 2416,
      "انطلاق": 2417,
      "كيل": 2418,
      "مسأل": 2419,
      "ملاح": 2420,
      "مطر": 2421,
      "##اجر": 2422,
      "مون": 2423,
      "عادل": 2424,
      "##هار": 2425,
      "تداول": 2426,
      "مستثمر": 2427,
      "متح": 2428,
      "أربعاء": 2429,
      "إنترنت": 2430,
      "##وش": 2431,
      "كمي": 2432,
      "جور": 2433,
      "ديموقراطي": 2434,
      "متخصص": 2435,
      "سادس": 2436,
      "اتهام": 2437,
      "##كى": 2438,
      "إجمالي": 2439,
      "26": 2440,
      "مفر": 2441,
      "##اصيل": 2442,
      "سوى": 2443,
      "حفظ": 2444,
      "عش": 2445,
      "از": 2446,
      "ممكن": 2447,
      "##ليزي": 2448,
      "بعث": 2449,
      "مصاب": 2450,
      "إصدار": 2451,
      "198": 2452,
      "أنشط": 2453,
      "إشر": 2454,
      "تعي": 2455,
      "وراء": 2456,
      "##اقد": 2457,
      "##ذل": 2458,
      "وفا": 2459,
      "##طفى": 2460,
      "جماهير": 2461,
      "متط": 2462,
      "طيران": 2463,
      "##ئي": 2464,
      "أطراف": 2465,
      "توقيع": 2466,
      "##طلاع": 2467,
      "تعادل": 2468,
      "أسماء": 2469,
      "قبض": 2470,
      "عصر": 2471,
      "##ارف": 2472,
      "اما": 2473,
      "يحدث": 2474,
      "##ريل": 2475,
      "يؤكد": 2476,
      "عبدالرحمن": 2477,
      "لحظ": 2478,
      "أحز": 2479,
      "##ظار": 2480,
      "وفى": 2481,
      "مستوي": 2482,
      "استقبال": 2483,
      "فشل": 2484,
      "صيد": 2485,
      "مشاهد": 2486,
      "صعيد": 2487,
      "ندو": 2488,
      "ذهب": 2489,
      "رمضان": 2490,
      "شقيق": 2491,
      "روي": 2492,
      "لجان": 2493,
      "تذ": 2494,
      "نظم": 2495,
      "تعبير": 2496,
      "كهرباء": 2497,
      "محدد": 2498,
      "27": 2499,
      "شروط": 2500,
      "أمراض": 2501,
      "شاعر": 2502,
      "احتفال": 2503,
      "##سد": 2504,
      "طع": 2505,
      "آثار": 2506,
      "عدال": 2507,
      "دبلوم": 2508,
      "أولي": 2509,
      "اص": 2510,
      "طبيع": 2511,
      "قومي": 2512,
      "مسيحي": 2513,
      "##تج": 2514,
      "سهم": 2515,
      "استفاد": 2516,
      "2011": 2517,
      "إمكاني": 2518,
      "توصل": 2519,
      "هز": 2520,
      "روم": 2521,
      "مهاجم": 2522,
      "ضح": 2523,
      "تحرك": 2524,
      "مسئول": 2525,
      "يحمل": 2526,
      "افتتاح": 2527,
      "##توح": 2528,
      "##تام": 2529,
      "سما": 2530,
      "تعليمي": 2531,
      "محيط": 2532,
      "##ابد": 2533,
      "قدس": 2534,
      "مصطفى": 2535,
      "مجرد": 2536,
      "قصر": 2537,
      "##اكر": 2538,
      "28": 2539,
      "رواي": 2540,
      "تهديد": 2541,
      "قت": 2542,
      "شف": 2543,
      "##افل": 2544,
      "هوي": 2545,
      "حفاظ": 2546,
      "توقف": 2547,
      "فرع": 2548,
      "وكيل": 2549,
      "تهم": 2550,
      "ثان": 2551,
      "إمكان": 2552,
      "تحويل": 2553,
      "##هاء": 2554,
      "تحسين": 2555,
      "عبار": 2556,
      "فو": 2557,
      "##كال": 2558,
      "إش": 2559,
      "ظاهر": 2560,
      "نوف": 2561,
      "يشارك": 2562,
      "##ذي": 2563,
      "##عف": 2564,
      "أحزاب": 2565,
      "سلبي": 2566,
      "باحث": 2567,
      "خرج": 2568,
      "بطل": 2569,
      "احتياج": 2570,
      "تمثل": 2571,
      "##توبر": 2572,
      "##ترض": 2573,
      "مسجد": 2574,
      "تشهد": 2575,
      "أكتوبر": 2576,
      "##كام": 2577,
      "أوب": 2578,
      "تعليق": 2579,
      "أحيان": 2580,
      "اعتداء": 2581,
      "مستقل": 2582,
      "##ورى": 2583,
      "##واع": 2584,
      "##ويض": 2585,
      "ثامن": 2586,
      "صحافي": 2587,
      "##كين": 2588,
      "نط": 2589,
      "حاكم": 2590,
      "طيب": 2591,
      "مقتل": 2592,
      "##كب": 2593,
      "2008": 2594,
      "مراجع": 2595,
      "تعيين": 2596,
      "2012": 2597,
      "سباق": 2598,
      "صديق": 2599,
      "##صى": 2600,
      "حلق": 2601,
      "##دود": 2602,
      "بول": 2603,
      "شم": 2604,
      "شدد": 2605,
      "فلسطين": 2606,
      "نفسي": 2607,
      "##صد": 2608,
      "##ماري": 2609,
      "سعاد": 2610,
      "مخرج": 2611,
      "أسد": 2612,
      "تفاصيل": 2613,
      "ثانوي": 2614,
      "تحقق": 2615,
      "أعرب": 2616,
      "شعار": 2617,
      "##ويت": 2618,
      "معين": 2619,
      "طبق": 2620,
      "حاول": 2621,
      "بنوك": 2622,
      "صعوب": 2623,
      "مجمع": 2624,
      "جريم": 2625,
      "سفار": 2626,
      "يرى": 2627,
      "فهم": 2628,
      "استن": 2629,
      "بغداد": 2630,
      "تغير": 2631,
      "دستوري": 2632,
      "ألمانيا": 2633,
      "أنظم": 2634,
      "ماذا": 2635,
      "##رو": 2636,
      "هجم": 2637,
      "##قاف": 2638,
      "##وفر": 2639,
      "يبلغ": 2640,
      "تحالف": 2641,
      "ارتفع": 2642,
      "##فذ": 2643,
      "ملت": 2644,
      "فساد": 2645,
      "##تلك": 2646,
      "قبول": 2647,
      "##طط": 2648,
      "##اكي": 2649,
      "مبنى": 2650,
      "يجعل": 2651,
      "##بحث": 2652,
      "##علام": 2653,
      "تبادل": 2654,
      "##او": 2655,
      "تكنولوجي": 2656,
      "صفح": 2657,
      "رحم": 2658,
      "مجل": 2659,
      "رسم": 2660,
      "بطاق": 2661,
      "ملح": 2662,
      "شوار": 2663,
      "عدل": 2664,
      "أنواع": 2665,
      "2009": 2666,
      "صفر": 2667,
      "رصيد": 2668,
      "##ولا": 2669,
      "طن": 2670,
      "صفق": 2671,
      "##بيب": 2672,
      "أوراق": 2673,
      "##لوب": 2674,
      "قضائي": 2675,
      "جبه": 2676,
      "مكر": 2677,
      "موضح": 2678,
      "##قام": 2679,
      "##خراج": 2680,
      "إبد": 2681,
      "يعيش": 2682,
      "موسي": 2683,
      "جود": 2684,
      "داع": 2685,
      "ميدان": 2686,
      "جار": 2687,
      "منصور": 2688,
      "تصوير": 2689,
      "تقي": 2690,
      "ضوء": 2691,
      "##فظ": 2692,
      "35": 2693,
      "خي": 2694,
      "##ندي": 2695,
      "دينار": 2696,
      "197": 2697,
      "نجح": 2698,
      "رأى": 2699,
      "شوط": 2700,
      "لوح": 2701,
      "ألعاب": 2702,
      "تصني": 2703,
      "إلغ": 2704,
      "مسار": 2705,
      "احترام": 2706,
      "##ونيو": 2707,
      "قلق": 2708,
      "زراعي": 2709,
      "أفكار": 2710,
      "تراث": 2711,
      "##اجب": 2712,
      "مشرف": 2713,
      "سق": 2714,
      "تشكل": 2715,
      "مديري": 2716,
      "شوارع": 2717,
      "التى": 2718,
      "فقر": 2719,
      "فير": 2720,
      "حذر": 2721,
      "##حاء": 2722,
      "عظ": 2723,
      "عقود": 2724,
      "##غال": 2725,
      "##غيل": 2726,
      "انتقال": 2727,
      "تأتي": 2728,
      "##اؤ": 2729,
      "انتشار": 2730,
      "صم": 2731,
      "ديس": 2732,
      "##تمبر": 2733,
      "زواج": 2734,
      "لفت": 2735,
      "قار": 2736,
      "كني": 2737,
      "شرف": 2738,
      "اند": 2739,
      "سبتمبر": 2740,
      "شن": 2741,
      "عقار": 2742,
      "إشراف": 2743,
      "ترتيب": 2744,
      "##نائي": 2745,
      "علماء": 2746,
      "##آت": 2747,
      "انضم": 2748,
      "مأ": 2749,
      "خبراء": 2750,
      "##سيط": 2751,
      "تث": 2752,
      "لند": 2753,
      "قاع": 2754,
      "فران": 2755,
      "فرح": 2756,
      "سياق": 2757,
      "مغرب": 2758,
      "تسع": 2759,
      "مميز": 2760,
      "فح": 2761,
      "جذ": 2762,
      "##راض": 2763,
      "تونسي": 2764,
      "خليف": 2765,
      "راشد": 2766,
      "تتح": 2767,
      "إيجاد": 2768,
      "##هج": 2769,
      "نادى": 2770,
      "##ترح": 2771,
      "خسار": 2772,
      "بلدان": 2773,
      "انخفاض": 2774,
      "##هان": 2775,
      "##جح": 2776,
      "أنفس": 2777,
      "اضطر": 2778,
      "يشكل": 2779,
      "##ثيق": 2780,
      "واجب": 2781,
      "أجر": 2782,
      "يؤدي": 2783,
      "تضم": 2784,
      "هول": 2785,
      "صفوف": 2786,
      "##ظل": 2787,
      "##ارير": 2788,
      "##عدد": 2789,
      "سرق": 2790,
      "##ذج": 2791,
      "2006": 2792,
      "موت": 2793,
      "##ترا": 2794,
      "يحتاج": 2795,
      "تسبب": 2796,
      "مباحث": 2797,
      "كيفي": 2798,
      "قصير": 2799,
      "طم": 2800,
      "متأ": 2801,
      "مفتوح": 2802,
      "تسليم": 2803,
      "مكت": 2804,
      "هى": 2805,
      "جون": 2806,
      "##ابت": 2807,
      "أصيب": 2808,
      "عباس": 2809,
      "زعيم": 2810,
      "معنى": 2811,
      "سج": 2812,
      "29": 2813,
      "خطط": 2814,
      "##سال": 2815,
      "دبلوماسي": 2816,
      "مستخدم": 2817,
      "يستطيع": 2818,
      "يولي": 2819,
      "منس": 2820,
      "تونس": 2821,
      "##مبي": 2822,
      "##شاف": 2823,
      "بدر": 2824,
      "انع": 2825,
      "جنود": 2826,
      "##جاب": 2827,
      "##كان": 2828,
      "أماكن": 2829,
      "زال": 2830,
      "##غب": 2831,
      "خيار": 2832,
      "متقدم": 2833,
      "أردن": 2834,
      "##ائى": 2835,
      "يتن": 2836,
      "غذائي": 2837,
      "أنت": 2838,
      "أصوات": 2839,
      "إلغاء": 2840,
      "متظاهر": 2841,
      "محاضر": 2842,
      "تسم": 2843,
      "##قاذ": 2844,
      "يورو": 2845,
      "بق": 2846,
      "##اديمي": 2847,
      "تبدأ": 2848,
      "تشمل": 2849,
      "##جاوز": 2850,
      "##طان": 2851,
      "31": 2852,
      "طبيب": 2853,
      "متميز": 2854,
      "ورد": 2855,
      "تقارير": 2856,
      "رئاسي": 2857,
      "##ائن": 2858,
      "سودان": 2859,
      "تخطي": 2860,
      "ضعف": 2861,
      "جهد": 2862,
      "وليد": 2863,
      "نقد": 2864,
      "مسرحي": 2865,
      "مبر": 2866,
      "اب": 2867,
      "حارس": 2868,
      "طبع": 2869,
      "بوش": 2870,
      "استط": 2871,
      "##لين": 2872,
      "جرى": 2873,
      "سكني": 2874,
      "إب": 2875,
      "تخصص": 2876,
      "سان": 2877,
      "استق": 2878,
      "لندن": 2879,
      "60": 2880,
      "مهني": 2881,
      "##وذ": 2882,
      "ماء": 2883,
      "##تون": 2884,
      "مهما": 2885,
      "أثر": 2886,
      "196": 2887,
      "##فا": 2888,
      "تظاهر": 2889,
      "سلسل": 2890,
      "##يمن": 2891,
      "استك": 2892,
      "يزيد": 2893,
      "يرف": 2894,
      "سط": 2895,
      "كام": 2896,
      "استش": 2897,
      "تعود": 2898,
      "##دس": 2899,
      "تشغيل": 2900,
      "يمني": 2901,
      "مادي": 2902,
      "إسكن": 2903,
      "ثماني": 2904,
      "مين": 2905,
      "##شفي": 2906,
      "##اهي": 2907,
      "##تس": 2908,
      "دليل": 2909,
      "فارق": 2910,
      "موسى": 2911,
      "باريس": 2912,
      "##اين": 2913,
      "متعدد": 2914,
      "يحصل": 2915,
      "##قيب": 2916,
      "صيني": 2917,
      "مخدر": 2918,
      "##انيا": 2919,
      "##تمال": 2920,
      "ياس": 2921,
      "ماضى": 2922,
      "تكر": 2923,
      "ديسمبر": 2924,
      "مرافق": 2925,
      "فند": 2926,
      "##ئن": 2927,
      "إنقاذ": 2928,
      "الل": 2929,
      "فبر": 2930,
      "يجري": 2931,
      "أطباء": 2932,
      "فار": 2933,
      "سمع": 2934,
      "##كير": 2935,
      "خوف": 2936,
      "##ورد": 2937,
      "مقيم": 2938,
      "##نب": 2939,
      "صحاف": 2940,
      "أرباح": 2941,
      "محام": 2942,
      "بريطانيا": 2943,
      "2007": 2944,
      "أكاديمي": 2945,
      "جث": 2946,
      "معاي": 2947,
      "##فيد": 2948,
      "فرد": 2949,
      "طول": 2950,
      "خطوط": 2951,
      "أسلوب": 2952,
      "##ائري": 2953,
      "نسخ": 2954,
      "شح": 2955,
      "مايو": 2956,
      "##شرف": 2957,
      "##صيل": 2958,
      "##اهن": 2959,
      "مواصل": 2960,
      "مختص": 2961,
      "سقوط": 2962,
      "صرح": 2963,
      "منازل": 2964,
      "تركيز": 2965,
      "لاحق": 2966,
      "محب": 2967,
      "يونيو": 2968,
      "##ويج": 2969,
      "تبلغ": 2970,
      "قذ": 2971,
      "نست": 2972,
      "##ريس": 2973,
      "فبراير": 2974,
      "مراحل": 2975,
      "مخاطر": 2976,
      "رقاب": 2977,
      "يصبح": 2978,
      "موارد": 2979,
      "متم": 2980,
      "زين": 2981,
      "معامل": 2982,
      "عقل": 2983,
      "طائف": 2984,
      "##سير": 2985,
      "لاجئ": 2986,
      "##جب": 2987,
      "تخص": 2988,
      "قاضي": 2989,
      "مول": 2990,
      "ناج": 2991,
      "طال": 2992,
      "سائق": 2993,
      "ليبيا": 2994,
      "تتع": 2995,
      "أولمبي": 2996,
      "عميد": 2997,
      "تلفزيون": 2998,
      "جبل": 2999,
      "تصرف": 3000,
      "رف": 3001,
      "ائ": 3002,
      "تصويت": 3003,
      "معرك": 3004,
      "تبر": 3005,
      "نوفمبر": 3006,
      "بحرين": 3007,
      "أردني": 3008,
      "تكلف": 3009,
      "ورش": 3010,
      "اختبار": 3011,
      "##طال": 3012,
      "ظهور": 3013,
      "##سون": 3014,
      "يلت": 3015,
      "##طى": 3016,
      "تلقى": 3017,
      "وطنى": 3018,
      "خيري": 3019,
      "معايير": 3020,
      "45": 3021,
      "أين": 3022,
      "##هن": 3023,
      "##اخر": 3024,
      "غريب": 3025,
      "أجواء": 3026,
      "بشر": 3027,
      "##انع": 3028,
      "خري": 3029,
      "##وقف": 3030,
      "خطير": 3031,
      "##ليب": 3032,
      "عادي": 3033,
      "2013": 3034,
      "واس": 3035,
      "أعد": 3036,
      "أنباء": 3037,
      "عروض": 3038,
      "يبدأ": 3039,
      "يبقى": 3040,
      "انتظار": 3041,
      "##تص": 3042,
      "كث": 3043,
      "وث": 3044,
      "خلق": 3045,
      "أهالي": 3046,
      "نعم": 3047,
      "اشتب": 3048,
      "جيل": 3049,
      "مخص": 3050,
      "تبقى": 3051,
      "نجوم": 3052,
      "اغتي": 3053,
      "يوليو": 3054,
      "جزائر": 3055,
      "زميل": 3056,
      "جرائم": 3057,
      "هجر": 3058,
      "تغطي": 3059,
      "تخل": 3060,
      "سحب": 3061,
      "أفلام": 3062,
      "كفاء": 3063,
      "امير": 3064,
      "ذكرى": 3065,
      "قرى": 3066,
      "تقريب": 3067,
      "ألا": 3068,
      "قواعد": 3069,
      "تاسع": 3070,
      "##عيل": 3071,
      "مبكر": 3072,
      "##بيد": 3073,
      "##به": 3074,
      "تشجي": 3075,
      "هر": 3076,
      "أنصار": 3077,
      "راح": 3078,
      "ولد": 3079,
      "استثماري": 3080,
      "إسكندري": 3081,
      "تربوي": 3082,
      "مرضى": 3083,
      "تواجه": 3084,
      "تضمن": 3085,
      "إنهاء": 3086,
      "خطأ": 3087,
      "##اطئ": 3088,
      "##ابس": 3089,
      "رائد": 3090,
      "كتل": 3091,
      "استهل": 3092,
      "مركب": 3093,
      "اعلام": 3094,
      "استقلال": 3095,
      "أقيم": 3096,
      "##اصف": 3097,
      "بنت": 3098,
      "شعوب": 3099,
      "عكس": 3100,
      "ضيف": 3101,
      "جورج": 3102,
      "##هوم": 3103,
      "معالي": 3104,
      "درهم": 3105,
      "##زاء": 3106,
      "استطاع": 3107,
      "تفعيل": 3108,
      "انسحاب": 3109,
      "استر": 3110,
      "أمريكا": 3111,
      "اعتقال": 3112,
      "2005": 3113,
      "لائح": 3114,
      "ميزاني": 3115,
      "##ورك": 3116,
      "علام": 3117,
      "ضحايا": 3118,
      "##يمان": 3119,
      "##ساط": 3120,
      "أحكام": 3121,
      "أقر": 3122,
      "مهام": 3123,
      "إست": 3124,
      "شيئ": 3125,
      "إذاع": 3126,
      "عدو": 3127,
      "##ابلس": 3128,
      "##غلاق": 3129,
      "##يع": 3130,
      "يضم": 3131,
      "تكريم": 3132,
      "##اسل": 3133,
      "جريد": 3134,
      "شاهد": 3135,
      "##تاز": 3136,
      "تقييم": 3137,
      "أبريل": 3138,
      "زاد": 3139,
      "آسيوي": 3140,
      "مخصص": 3141,
      "حاضر": 3142,
      "اقتراح": 3143,
      "سكر": 3144,
      "##خيص": 3145,
      "لابد": 3146,
      "اغتيال": 3147,
      "نر": 3148,
      "رؤساء": 3149,
      "أحمر": 3150,
      "أصد": 3151,
      "جامعي": 3152,
      "انفجار": 3153,
      "معسكر": 3154,
      "بديل": 3155,
      "##يز": 3156,
      "أخل": 3157,
      "استقبل": 3158,
      "كنيس": 3159,
      "شمس": 3160,
      "يتر": 3161,
      "##جأ": 3162,
      "أبح": 3163,
      "تشجيع": 3164,
      "صيف": 3165,
      "شو": 3166,
      "رشيد": 3167,
      "حظ": 3168,
      "أفريقيا": 3169,
      "مخيم": 3170,
      "تكنولوجيا": 3171,
      "##سيم": 3172,
      "##يسي": 3173,
      "إرسال": 3174,
      "تقليدي": 3175,
      "مخطط": 3176,
      "صلا": 3177,
      "استقال": 3178,
      "فائز": 3179,
      "نطاق": 3180,
      "##عاد": 3181,
      "تواجد": 3182,
      "تفر": 3183,
      "أحر": 3184,
      "شبه": 3185,
      "محادث": 3186,
      "نيل": 3187,
      "##هلك": 3188,
      "تأهيل": 3189,
      "تحتاج": 3190,
      "مثال": 3191,
      "هب": 3192,
      "جسم": 3193,
      "نجد": 3194,
      "##فى": 3195,
      "أغني": 3196,
      "##يسى": 3197,
      "مكون": 3198,
      "##جيب": 3199,
      "ناخب": 3200,
      "سيما": 3201,
      "أفغان": 3202,
      "تي": 3203,
      "وقوف": 3204,
      "تعويض": 3205,
      "تشرين": 3206,
      "تلق": 3207,
      "آسيا": 3208,
      "##تار": 3209,
      "سويس": 3210,
      "##شئ": 3211,
      "تبين": 3212,
      "إضافي": 3213,
      "يلعب": 3214,
      "غالب": 3215,
      "ديوان": 3216,
      "أظهر": 3217,
      "مستشفي": 3218,
      "مطلع": 3219,
      "##فور": 3220,
      "جاه": 3221,
      "ود": 3222,
      "##وظ": 3223,
      "##اكب": 3224,
      "إخراج": 3225,
      "برلماني": 3226,
      "مذكر": 3227,
      "خليل": 3228,
      "أصول": 3229,
      "مؤلف": 3230,
      "شهيد": 3231,
      "تؤكد": 3232,
      "يملك": 3233,
      "دب": 3234,
      "طو": 3235,
      "32": 3236,
      "##زين": 3237,
      "جان": 3238,
      "##كذا": 3239,
      "نهض": 3240,
      "تشير": 3241,
      "##قيل": 3242,
      "أخبار": 3243,
      "##طع": 3244,
      "مظاهر": 3245,
      "تخطيط": 3246,
      "عضوي": 3247,
      "جمل": 3248,
      "أبيض": 3249,
      "دمام": 3250,
      "##بول": 3251,
      "تمث": 3252,
      "أنحاء": 3253,
      "أوباما": 3254,
      "تصميم": 3255,
      "مرسى": 3256,
      "نظير": 3257,
      "عاج": 3258,
      "هاتف": 3259,
      "ذهاب": 3260,
      "##وام": 3261,
      "يزال": 3262,
      "فندق": 3263,
      "مهن": 3264,
      "مغر": 3265,
      "بقاء": 3266,
      "مقترح": 3267,
      "يقت": 3268,
      "عما": 3269,
      "##امح": 3270,
      "سعي": 3271,
      "وافق": 3272,
      "انتصار": 3273,
      "شق": 3274,
      "احد": 3275,
      "حلف": 3276,
      "دراسي": 3277,
      "##فاء": 3278,
      "تجديد": 3279,
      "مرمى": 3280,
      "ورق": 3281,
      "إقليم": 3282,
      "عج": 3283,
      "سلمان": 3284,
      "مقاطع": 3285,
      "لير": 3286,
      "مفهوم": 3287,
      "مريض": 3288,
      "يجد": 3289,
      "تشي": 3290,
      "شد": 3291,
      "شهري": 3292,
      "تجارب": 3293,
      "سماح": 3294,
      "صلاح": 3295,
      "كوريا": 3296,
      "هكذا": 3297,
      "خسائر": 3298,
      "##صري": 3299,
      "خض": 3300,
      "رويتر": 3301,
      "نوعي": 3302,
      "يحاول": 3303,
      "ثنائي": 3304,
      "تعلم": 3305,
      "مطلق": 3306,
      "طوال": 3307,
      "ثمن": 3308,
      "##50": 3309,
      "حربي": 3310,
      "عمومي": 3311,
      "زمال": 3312,
      "مكرم": 3313,
      "##ستاني": 3314,
      "جزائري": 3315,
      "اثر": 3316,
      "أرقام": 3317,
      "##ديو": 3318,
      "تسهيل": 3319,
      "سلع": 3320,
      "عجز": 3321,
      "أذ": 3322,
      "نيوي": 3323,
      "وعي": 3324,
      "ذوي": 3325,
      "أقصى": 3326,
      "حيوي": 3327,
      "70": 3328,
      "##زق": 3329,
      "تولي": 3330,
      "بلاغ": 3331,
      "طموح": 3332,
      "إثر": 3333,
      "توفر": 3334,
      "نسم": 3335,
      "ينب": 3336,
      "متد": 3337,
      "أسئل": 3338,
      "أجانب": 3339,
      "إغلاق": 3340,
      "رسوم": 3341,
      "احتمال": 3342,
      "يواجه": 3343,
      "مقاتل": 3344,
      "استغلال": 3345,
      "جوان": 3346,
      "شهداء": 3347,
      "تصفي": 3348,
      "إماراتي": 3349,
      "وثيق": 3350,
      "نن": 3351,
      "##زن": 3352,
      "فتا": 3353,
      "نيويورك": 3354,
      "زمل": 3355,
      "عاط": 3356,
      "شمل": 3357,
      "أبحاث": 3358,
      "يستخدم": 3359,
      "خلفي": 3360,
      "بورص": 3361,
      "داعي": 3362,
      "جدد": 3363,
      "لذا": 3364,
      "حدوث": 3365,
      "ضف": 3366,
      "غال": 3367,
      "ضروري": 3368,
      "تدريبي": 3369,
      "##سترالي": 3370,
      "ذهبي": 3371,
      "ند": 3372,
      "يسعى": 3373,
      "جدي": 3374,
      "توسع": 3375,
      "ألق": 3376,
      "يعتقد": 3377,
      "80": 3378,
      "##مون": 3379,
      "فكري": 3380,
      "تقع": 3381,
      "عماد": 3382,
      "مزارع": 3383,
      "مغربي": 3384,
      "##ويد": 3385,
      "نقص": 3386,
      "يقل": 3387,
      "تسعى": 3388,
      "توجد": 3389,
      "##زا": 3390,
      "تزال": 3391,
      "وقوع": 3392,
      "محترف": 3393,
      "ودي": 3394,
      "كلا": 3395,
      "ملابس": 3396,
      "ربيع": 3397,
      "ياباني": 3398,
      "##مائي": 3399,
      "نيابي": 3400,
      "امر": 3401,
      "عاش": 3402,
      "خال": 3403,
      "##طم": 3404,
      "##شيح": 3405,
      "##ادئ": 3406,
      "##er": 3407,
      "سامي": 3408,
      "سد": 3409,
      "##ناء": 3410,
      "تميز": 3411,
      "تفجير": 3412,
      "تضامن": 3413,
      "##سكو": 3414,
      "إزال": 3415,
      "##هران": 3416,
      "وظائف": 3417,
      "أسفر": 3418,
      "تجهي": 3419,
      "مهار": 3420,
      "يحقق": 3421,
      "##وغ": 3422,
      "حبيب": 3423,
      "قرآن": 3424,
      "مبالغ": 3425,
      "تهدف": 3426,
      "منظ": 3427,
      "رائع": 3428,
      "اختلاف": 3429,
      "تجهيز": 3430,
      "حرس": 3431,
      "##تلف": 3432,
      "فنون": 3433,
      "استعاد": 3434,
      "##نيا": 3435,
      "فائد": 3436,
      "كوم": 3437,
      "قطري": 3438,
      "أفغانستان": 3439,
      "##شال": 3440,
      "زمالك": 3441,
      "##هاب": 3442,
      "وظيف": 3443,
      "أولوي": 3444,
      "ضغوط": 3445,
      "تأهل": 3446,
      "##ابيع": 3447,
      "مدافع": 3448,
      "ترشيح": 3449,
      "##غرافي": 3450,
      "نقاش": 3451,
      "ارتب": 3452,
      "بسيط": 3453,
      "أعوام": 3454,
      "إسماع": 3455,
      "ثرو": 3456,
      "أبطال": 3457,
      "حوادث": 3458,
      "عظيم": 3459,
      "أسترالي": 3460,
      "مرتبط": 3461,
      "رويترز": 3462,
      "تظهر": 3463,
      "مازال": 3464,
      "مناخ": 3465,
      "رصد": 3466,
      "سوء": 3467,
      "كرام": 3468,
      "اتخذ": 3469,
      "كافي": 3470,
      "تأكد": 3471,
      "طرابلس": 3472,
      "يابان": 3473,
      "غضب": 3474,
      "أسس": 3475,
      "صال": 3476,
      "فضائي": 3477,
      "وض": 3478,
      "##ريك": 3479,
      "آن": 3480,
      "منتصف": 3481,
      "ربط": 3482,
      "##عيد": 3483,
      "عائد": 3484,
      "##سطس": 3485,
      "بوت": 3486,
      "تقام": 3487,
      "إسماعيل": 3488,
      "ترى": 3489,
      "ثابت": 3490,
      "اعتراف": 3491,
      "شورى": 3492,
      "يحي": 3493,
      "آي": 3494,
      "زم": 3495,
      "آذار": 3496,
      "تحليل": 3497,
      "إقرار": 3498,
      "يظهر": 3499,
      "ملاحظ": 3500,
      "إحص": 3501,
      "شار": 3502,
      "صنع": 3503,
      "##لل": 3504,
      "قصف": 3505,
      "##بال": 3506,
      "لون": 3507,
      "جرح": 3508,
      "تصدر": 3509,
      "أغسطس": 3510,
      "جوائز": 3511,
      "كهربائي": 3512,
      "جدول": 3513,
      "ساهم": 3514,
      "أشكال": 3515,
      "سهل": 3516,
      "بث": 3517,
      "تحض": 3518,
      "عيسى": 3519,
      "رحمن": 3520,
      "حميد": 3521,
      "إضر": 3522,
      "مصرفي": 3523,
      "إفر": 3524,
      "برازي": 3525,
      "مستهلك": 3526,
      "تجري": 3527,
      "سمير": 3528,
      "مير": 3529,
      "متس": 3530,
      "محت": 3531,
      "أحدث": 3532,
      "برت": 3533,
      "توافق": 3534,
      "سياد": 3535,
      "إيمان": 3536,
      "محدود": 3537,
      "صدور": 3538,
      "اختر": 3539,
      "متف": 3540,
      "##ايل": 3541,
      "عاشر": 3542,
      "##افد": 3543,
      "ضو": 3544,
      "أدنى": 3545,
      "مساف": 3546,
      "متك": 3547,
      "تدم": 3548,
      "تعريف": 3549,
      "سينما": 3550,
      "واسط": 3551,
      "وارد": 3552,
      "142": 3553,
      "##فز": 3554,
      "مسجل": 3555,
      "طائ": 3556,
      "انتقل": 3557,
      "حرار": 3558,
      "مشهد": 3559,
      "يطالب": 3560,
      "##والى": 3561,
      "شت": 3562,
      "متب": 3563,
      "شراك": 3564,
      "##شى": 3565,
      "##ازم": 3566,
      "برازيلي": 3567,
      "جراح": 3568,
      "زايد": 3569,
      "مؤقت": 3570,
      "##اضى": 3571,
      "تريد": 3572,
      "استكمال": 3573,
      "أحياء": 3574,
      "عسكر": 3575,
      "معتقل": 3576,
      "##اؤل": 3577,
      "ضخم": 3578,
      "كانون": 3579,
      "موجب": 3580,
      "انضمام": 3581,
      "طوار": 3582,
      "##تيل": 3583,
      "بيئي": 3584,
      "90": 3585,
      "عمان": 3586,
      "جابر": 3587,
      "يرت": 3588,
      "زل": 3589,
      "عقيد": 3590,
      "يتحدث": 3591,
      "ثل": 3592,
      "مشاعر": 3593,
      "تعاقد": 3594,
      "##بى": 3595,
      "ملتقى": 3596,
      "مصنع": 3597,
      "اتهم": 3598,
      "مبادئ": 3599,
      "ذى": 3600,
      "وعد": 3601,
      "متز": 3602,
      "ترجم": 3603,
      "تفتي": 3604,
      "##طب": 3605,
      "عمرو": 3606,
      "مسا": 3607,
      "صواريخ": 3608,
      "حلم": 3609,
      "إبداع": 3610,
      "تفكير": 3611,
      "ضباط": 3612,
      "شئ": 3613,
      "مرتفع": 3614,
      "ينتظر": 3615,
      "كول": 3616,
      "فريد": 3617,
      "يدخل": 3618,
      "أغلب": 3619,
      "مبد": 3620,
      "تصبح": 3621,
      "راهن": 3622,
      "أسابيع": 3623,
      "عتي": 3624,
      "أقام": 3625,
      "أبنائ": 3626,
      "وهى": 3627,
      "مبدأ": 3628,
      "اشتباك": 3629,
      "عوامل": 3630,
      "لعل": 3631,
      "##قاط": 3632,
      "يضع": 3633,
      "قضا": 3634,
      "36": 3635,
      "عملاء": 3636,
      "منشآت": 3637,
      "يتوقع": 3638,
      "سبل": 3639,
      "معاهد": 3640,
      "فجر": 3641,
      "ده": 3642,
      "2014": 3643,
      "2004": 3644,
      "ثانى": 3645,
      "غاب": 3646,
      "يسمح": 3647,
      "سني": 3648,
      "سلوك": 3649,
      "مصير": 3650,
      "##عدام": 3651,
      "تأجيل": 3652,
      "معتبر": 3653,
      "##تفي": 3654,
      "##رين": 3655,
      "محتل": 3656,
      "مكاتب": 3657,
      "قنو": 3658,
      "جماعي": 3659,
      "توتر": 3660,
      "حضار": 3661,
      "##ماني": 3662,
      "تام": 3663,
      "أثار": 3664,
      "تمثيل": 3665,
      "خطور": 3666,
      "توفيق": 3667,
      "تتن": 3668,
      "صيان": 3669,
      "مشدد": 3670,
      "33": 3671,
      "تاي": 3672,
      "منمن": 3673,
      "نظري": 3674,
      "نبي": 3675,
      "توصي": 3676,
      "جراء": 3677,
      "طوارئ": 3678,
      "طائفي": 3679,
      "حامل": 3680,
      "194": 3681,
      "كري": 3682,
      "فنى": 3683,
      "متنوع": 3684,
      "يدفع": 3685,
      "دولى": 3686,
      "##قائ": 3687,
      "##تمنى": 3688,
      "ناتج": 3689,
      "هش": 3690,
      "صلاحي": 3691,
      "طهران": 3692,
      "##وسي": 3693,
      "نزاع": 3694,
      "تفوق": 3695,
      "موجه": 3696,
      "نموذج": 3697,
      "ارب": 3698,
      "##اعم": 3699,
      "غل": 3700,
      "باقي": 3701,
      "ذاتي": 3702,
      "عف": 3703,
      "ختام": 3704,
      "نفذ": 3705,
      "عون": 3706,
      "خفض": 3707,
      "استئن": 3708,
      "صهي": 3709,
      "رفيق": 3710,
      "بارز": 3711,
      "فيديو": 3712,
      "سلمي": 3713,
      "إراد": 3714,
      "كامير": 3715,
      "تخرج": 3716,
      "##حام": 3717,
      "يقع": 3718,
      "نخ": 3719,
      "مبيع": 3720,
      "##ميق": 3721,
      "عدوان": 3722,
      "أحوال": 3723,
      "تستمر": 3724,
      "أبواب": 3725,
      "محاسب": 3726,
      "توظ": 3727,
      "تركيب": 3728,
      "كلف": 3729,
      "تلقي": 3730,
      "واجه": 3731,
      "بطر": 3732,
      "اكتشاف": 3733,
      "تورس": 3734,
      "طعام": 3735,
      "##هود": 3736,
      "عط": 3737,
      "تجد": 3738,
      "بريد": 3739,
      "مؤهل": 3740,
      "مصرف": 3741,
      "توظيف": 3742,
      "##بعاد": 3743,
      "امرأ": 3744,
      "500": 3745,
      "مدريد": 3746,
      "انقل": 3747,
      "##اهو": 3748,
      "##حيل": 3749,
      "يبحث": 3750,
      "أدبي": 3751,
      "تتضمن": 3752,
      "تصنيف": 3753,
      "##امب": 3754,
      "شعور": 3755,
      "تمي": 3756,
      "زهر": 3757,
      "##كرر": 3758,
      "هاد": 3759,
      "##فيض": 3760,
      "مجدد": 3761,
      "أشاد": 3762,
      "مند": 3763,
      "جندي": 3764,
      "##هاد": 3765,
      "ابتد": 3766,
      "##صام": 3767,
      "إنجليزي": 3768,
      "تشريعي": 3769,
      "مقام": 3770,
      "فعلي": 3771,
      "أخطاء": 3772,
      "##تيني": 3773,
      "تنم": 3774,
      "##زر": 3775,
      "متاح": 3776,
      "بذل": 3777,
      "يستمر": 3778,
      "اختص": 3779,
      "نقدي": 3780,
      "حديد": 3781,
      "حوالى": 3782,
      "حلب": 3783,
      "إمام": 3784,
      "##ينا": 3785,
      "نسائي": 3786,
      "قياسي": 3787,
      "أعداد": 3788,
      "سرطان": 3789,
      "وزن": 3790,
      "أسط": 3791,
      "مدار": 3792,
      "سقط": 3793,
      "فحص": 3794,
      "يقود": 3795,
      "سكن": 3796,
      "يشهد": 3797,
      "##ركز": 3798,
      "##فتاء": 3799,
      "أيض": 3800,
      "تسلم": 3801,
      "بترول": 3802,
      "معانا": 3803,
      "حكام": 3804,
      "تعالى": 3805,
      "قبيل": 3806,
      "إضراب": 3807,
      "تسي": 3808,
      "##نف": 3809,
      "فت": 3810,
      "عبيد": 3811,
      "استضاف": 3812,
      "عموم": 3813,
      "يتضمن": 3814,
      "سيف": 3815,
      "صادق": 3816,
      "فاعل": 3817,
      "يحت": 3818,
      "##اخل": 3819,
      "بشار": 3820,
      "كور": 3821,
      "عيش": 3822,
      "أقرب": 3823,
      "أهلى": 3824,
      "منتدى": 3825,
      "أدي": 3826,
      "##واني": 3827,
      "إعطاء": 3828,
      "برك": 3829,
      "مخل": 3830,
      "أدوي": 3831,
      "تسويق": 3832,
      "تستخدم": 3833,
      "خسر": 3834,
      "أرسل": 3835,
      "195": 3836,
      "اتحادي": 3837,
      "##تيح": 3838,
      "اك": 3839,
      "##بات": 3840,
      "عمار": 3841,
      "غالبي": 3842,
      "##وطن": 3843,
      "مقعد": 3844,
      "مجاور": 3845,
      "##حر": 3846,
      "يهود": 3847,
      "رسائل": 3848,
      "مقدس": 3849,
      "محامي": 3850,
      "اختصاص": 3851,
      "##تنا": 3852,
      "نهر": 3853,
      "شهير": 3854,
      "أيدي": 3855,
      "امتح": 3856,
      "تعيش": 3857,
      "##اليد": 3858,
      "موحد": 3859,
      "34": 3860,
      "عربى": 3861,
      "بابا": 3862,
      "استئناف": 3863,
      "حظر": 3864,
      "استي": 3865,
      "جوانب": 3866,
      "تملك": 3867,
      "كيان": 3868,
      "مرس": 3869,
      "زار": 3870,
      "أقول": 3871,
      "زوار": 3872,
      "ميناء": 3873,
      "42": 3874,
      "رسول": 3875,
      "مربع": 3876,
      "حمود": 3877,
      "##درس": 3878,
      "مذكور": 3879,
      "##وكي": 3880,
      "دير": 3881,
      "يشير": 3882,
      "أدب": 3883,
      "معن": 3884,
      "حيوان": 3885,
      "ألب": 3886,
      "طارق": 3887,
      "يساعد": 3888,
      "متش": 3889,
      "يعاني": 3890,
      "داعش": 3891,
      "ممتاز": 3892,
      "##دون": 3893,
      "توعي": 3894,
      "أسف": 3895,
      "##ييد": 3896,
      "##اليب": 3897,
      "ازد": 3898,
      "استد": 3899,
      "توالي": 3900,
      "##خير": 3901,
      "فارس": 3902,
      "دعوى": 3903,
      "##اوى": 3904,
      "حاد": 3905,
      "ضابط": 3906,
      "صهيوني": 3907,
      "فخ": 3908,
      "شاش": 3909,
      "##زز": 3910,
      "300": 3911,
      "سند": 3912,
      "مارك": 3913,
      "##تري": 3914,
      "يعرض": 3915,
      "جاد": 3916,
      "أضر": 3917,
      "دقائق": 3918,
      "مجهول": 3919,
      "طي": 3920,
      "هزيم": 3921,
      "##افذ": 3922,
      "تقل": 3923,
      "امتحان": 3924,
      "48": 3925,
      "مناه": 3926,
      "كثر": 3927,
      "ناجح": 3928,
      "تتعلق": 3929,
      "75": 3930,
      "طرد": 3931,
      "نض": 3932,
      "ينبغي": 3933,
      "رضا": 3934,
      "متطلب": 3935,
      "##هيد": 3936,
      "اعتصام": 3937,
      "حريق": 3938,
      "نسي": 3939,
      "نفق": 3940,
      "تخصيص": 3941,
      "تكوين": 3942,
      "سار": 3943,
      "نبيل": 3944,
      "حن": 3945,
      "هندي": 3946,
      "سياسى": 3947,
      "##ثق": 3948,
      "آمن": 3949,
      "رصاص": 3950,
      "##عود": 3951,
      "تلبي": 3952,
      "فؤ": 3953,
      "جوار": 3954,
      "لج": 3955,
      "يض": 3956,
      "باكستان": 3957,
      "قابل": 3958,
      "انتق": 3959,
      "ترت": 3960,
      "تنظم": 3961,
      "أخضر": 3962,
      "غار": 3963,
      "مساند": 3964,
      "إغ": 3965,
      "إذن": 3966,
      "تشارك": 3967,
      "تزيد": 3968,
      "حدد": 3969,
      "غام": 3970,
      "##ذب": 3971,
      "##يلول": 3972,
      "انتقاد": 3973,
      "أراد": 3974,
      "استخدم": 3975,
      "##on": 3976,
      "إجاز": 3977,
      "##اجأ": 3978,
      "##صم": 3979,
      "برميل": 3980,
      "##تير": 3981,
      "حفر": 3982,
      "أدو": 3983,
      "يهدف": 3984,
      "رحيل": 3985,
      "سيناء": 3986,
      "استثناء": 3987,
      "هيكل": 3988,
      "استجاب": 3989,
      "ألقى": 3990,
      "سوداني": 3991,
      "##اهب": 3992,
      "تفتيش": 3993,
      "اطلاق": 3994,
      "نادر": 3995,
      "نريد": 3996,
      "2003": 3997,
      "انق": 3998,
      "ماجد": 3999,
      "مالك": 4000,
      "شئون": 4001,
      "شارق": 4002,
      "مستقب": 4003,
      "فضاء": 4004,
      "##طيف": 4005,
      "37": 4006,
      "لاسي": 4007,
      "قوم": 4008,
      "يهودي": 4009,
      "يعتمد": 4010,
      "يعقد": 4011,
      "سيئ": 4012,
      "يحد": 4013,
      "موسيقى": 4014,
      "فؤاد": 4015,
      "وقود": 4016,
      "مستوطن": 4017,
      "لاسيما": 4018,
      "##زان": 4019,
      "موازن": 4020,
      "##ضيح": 4021,
      "سام": 4022,
      "التقى": 4023,
      "شريك": 4024,
      "محتمل": 4025,
      "38": 4026,
      "اعداد": 4027,
      "مثقف": 4028,
      "حمر": 4029,
      "ميداني": 4030,
      "كرم": 4031,
      "ذاكر": 4032,
      "معر": 4033,
      "دوائر": 4034,
      "يشعر": 4035,
      "بيد": 4036,
      "بحوث": 4037,
      "مستقبلي": 4038,
      "موسكو": 4039,
      "أفريقي": 4040,
      "ثمة": 4041,
      "تنقل": 4042,
      "جنائي": 4043,
      "استفتاء": 4044,
      "زيد": 4045,
      "اعلن": 4046,
      "باق": 4047,
      "وسيل": 4048,
      "غني": 4049,
      "##رع": 4050,
      "امت": 4051,
      "ناشط": 4052,
      "##اضع": 4053,
      "علا": 4054,
      "تليف": 4055,
      "عنصر": 4056,
      "تحضير": 4057,
      "أبلغ": 4058,
      "تحكم": 4059,
      "##ثف": 4060,
      "##اضل": 4061,
      "##وفي": 4062,
      "عائ": 4063,
      "استطلاع": 4064,
      "فتي": 4065,
      "##رال": 4066,
      "مور": 4067,
      "أرضي": 4068,
      "قيادي": 4069,
      "كيلو": 4070,
      "##سيع": 4071,
      "##لبي": 4072,
      "انتح": 4073,
      "##شلون": 4074,
      "صدام": 4075,
      "صاروخ": 4076,
      "أرجن": 4077,
      "مستحق": 4078,
      "حسم": 4079,
      "##غار": 4080,
      "##اقل": 4081,
      "برشلون": 4082,
      "أسام": 4083,
      "أساليب": 4084,
      "##ابه": 4085,
      "يعلم": 4086,
      "##خفض": 4087,
      "صدد": 4088,
      "عناي": 4089,
      "تلفزيوني": 4090,
      "انتهاك": 4091,
      "شغل": 4092,
      "فوض": 4093,
      "##احن": 4094,
      "##ستي": 4095,
      "يدعو": 4096,
      "محور": 4097,
      "أولاد": 4098,
      "فردي": 4099,
      "##in": 4100,
      "جدل": 4101,
      "تخفيض": 4102,
      "##اعف": 4103,
      "متكامل": 4104,
      "راحل": 4105,
      "##هو": 4106,
      "فعال": 4107,
      "محسن": 4108,
      "ناشئ": 4109,
      "جنرال": 4110,
      "تفاعل": 4111,
      "إيقاف": 4112,
      "توسيع": 4113,
      "##خال": 4114,
      "تأييد": 4115,
      "أعتقد": 4116,
      "استح": 4117,
      "دنيا": 4118,
      "ناري": 4119,
      "##ظى": 4120,
      "أرك": 4121,
      "جسد": 4122,
      "قح": 4123,
      "مجالس": 4124,
      "##اقص": 4125,
      "قروض": 4126,
      "واصل": 4127,
      "انطلق": 4128,
      "مكلف": 4129,
      "ابتدائي": 4130,
      "##اريو": 4131,
      "تمر": 4132,
      "نفطي": 4133,
      "##بس": 4134,
      "يلي": 4135,
      "أسود": 4136,
      "خوض": 4137,
      "##شاد": 4138,
      "ساحل": 4139,
      "استهلاك": 4140,
      "ربح": 4141,
      "بكر": 4142,
      "مقاول": 4143,
      "شعري": 4144,
      "##وتر": 4145,
      "باراك": 4146,
      "قطار": 4147,
      "يتأ": 4148,
      "اعترف": 4149,
      "تدمير": 4150,
      "نظيف": 4151,
      "##ومتر": 4152,
      "كاب": 4153,
      "نوم": 4154,
      "تساعد": 4155,
      "يفر": 4156,
      "متفر": 4157,
      "قصيد": 4158,
      "جزاء": 4159,
      "مروري": 4160,
      "صدار": 4161,
      "تذكر": 4162,
      "اطلاع": 4163,
      "مثير": 4164,
      "استحق": 4165,
      "يتمكن": 4166,
      "حصار": 4167,
      "درس": 4168,
      "مماثل": 4169,
      "عيون": 4170,
      "سفين": 4171,
      "معتمد": 4172,
      "عثمان": 4173,
      "حار": 4174,
      "تجعل": 4175,
      "سينمائي": 4176,
      "خريج": 4177,
      "اشت": 4178,
      "اضطراب": 4179,
      "##اديق": 4180,
      "توقيت": 4181,
      "قياس": 4182,
      "هائل": 4183,
      "منظوم": 4184,
      "ناطق": 4185,
      "صناديق": 4186,
      "صعود": 4187,
      "تستطيع": 4188,
      "##تراوح": 4189,
      "تؤدي": 4190,
      "بيوت": 4191,
      "##شم": 4192,
      "سيول": 4193,
      "##جاع": 4194,
      "استهدف": 4195,
      "تعتمد": 4196,
      "توفي": 4197,
      "##يا": 4198,
      "بند": 4199,
      "نايف": 4200,
      "أصلي": 4201,
      "أثبت": 4202,
      "تشريع": 4203,
      "خبير": 4204,
      "فص": 4205,
      "فيروس": 4206,
      "##يمي": 4207,
      "كمال": 4208,
      "استخب": 4209,
      "إجاب": 4210,
      "تحتي": 4211,
      "##كاب": 4212,
      "جدار": 4213,
      "حراس": 4214,
      "استبد": 4215,
      "عنزي": 4216,
      "##زاز": 4217,
      "انهي": 4218,
      "##تزم": 4219,
      "سهول": 4220,
      "أشياء": 4221,
      "كا": 4222,
      "يقف": 4223,
      "حافظ": 4224,
      "نخب": 4225,
      "معنوي": 4226,
      "عزل": 4227,
      "أضرار": 4228,
      "ترفي": 4229,
      "تخفيف": 4230,
      "لجوء": 4231,
      "أميركا": 4232,
      "مغادر": 4233,
      "حاصل": 4234,
      "يخرج": 4235,
      "كيلومتر": 4236,
      "جدير": 4237,
      "يشمل": 4238,
      "فتن": 4239,
      "شرح": 4240,
      "قيد": 4241,
      "65": 4242,
      "##اليف": 4243,
      "توازن": 4244,
      "كيمي": 4245,
      "برج": 4246,
      "وثائق": 4247,
      "صوم": 4248,
      "كسر": 4249,
      "زعم": 4250,
      "اتفق": 4251,
      "هواء": 4252,
      "يتطلب": 4253,
      "لاي": 4254,
      "##ساس": 4255,
      "يلتقي": 4256,
      "كفر": 4257,
      "آراء": 4258,
      "##ضرر": 4259,
      "موندي": 4260,
      "رام": 4261,
      "عسكرى": 4262,
      "##كيم": 4263,
      "44": 4264,
      "##واجد": 4265,
      "انهيار": 4266,
      "إله": 4267,
      "أزهر": 4268,
      "صلى": 4269,
      "يتعرض": 4270,
      "اختار": 4271,
      "يطلب": 4272,
      "إقبال": 4273,
      "##ناع": 4274,
      "يعلن": 4275,
      "مصارف": 4276,
      "نيس": 4277,
      "##an": 4278,
      "##ترم": 4279,
      "أيمن": 4280,
      "يطلق": 4281,
      "##مح": 4282,
      "خيم": 4283,
      "##لسي": 4284,
      "ضحي": 4285,
      "خش": 4286,
      "مطروح": 4287,
      "دوس": 4288,
      "منور": 4289,
      "يطر": 4290,
      "اربعاء": 4291,
      "##اتف": 4292,
      "متطرف": 4293,
      "إفراج": 4294,
      "تصدير": 4295,
      "تفاهم": 4296,
      "حجر": 4297,
      "ظلم": 4298,
      "قادسي": 4299,
      "حضاري": 4300,
      "يحيى": 4301,
      "أصدقاء": 4302,
      "هاتفي": 4303,
      "يرفض": 4304,
      "يتمتع": 4305,
      "مؤيد": 4306,
      "مضاد": 4307,
      "الي": 4308,
      "2015": 4309,
      "أغلبي": 4310,
      "حافل": 4311,
      "##الك": 4312,
      "ولاد": 4313,
      "وادي": 4314,
      "##اوف": 4315,
      "##ريت": 4316,
      "شريع": 4317,
      "قلوب": 4318,
      "هندس": 4319,
      "عميق": 4320,
      "##وجه": 4321,
      "إلق": 4322,
      "شرب": 4323,
      "فاط": 4324,
      "يضيف": 4325,
      "##قدام": 4326,
      "تصور": 4327,
      "أحساء": 4328,
      "مقت": 4329,
      "أركان": 4330,
      "براز": 4331,
      "تبرع": 4332,
      "تعهد": 4333,
      "لس": 4334,
      "نفى": 4335,
      "نقيب": 4336,
      "##اتذ": 4337,
      "##تبه": 4338,
      "مونديال": 4339,
      "عوض": 4340,
      "تدريس": 4341,
      "نرى": 4342,
      "ياسر": 4343,
      "هبوط": 4344,
      "قاب": 4345,
      "ريف": 4346,
      "غرض": 4347,
      "طف": 4348,
      "مخاوف": 4349,
      "بال": 4350,
      "مواصف": 4351,
      "جغرافي": 4352,
      "شحن": 4353,
      "أض": 4354,
      "راي": 4355,
      "ألوان": 4356,
      "موسيقي": 4357,
      "فرانس": 4358,
      "إحال": 4359,
      "سجون": 4360,
      "بك": 4361,
      "مرسوم": 4362,
      "متحف": 4363,
      "جروح": 4364,
      "دل": 4365,
      "كلما": 4366,
      "عاجل": 4367,
      "أيلول": 4368,
      "تكاليف": 4369,
      "خان": 4370,
      "نهار": 4371,
      "##عال": 4372,
      "##تبع": 4373,
      "تكت": 4374,
      "صدق": 4375,
      "انقلاب": 4376,
      "تنموي": 4377,
      "ائتلاف": 4378,
      "أساتذ": 4379,
      "تجنب": 4380,
      "تردد": 4381,
      "استعمال": 4382,
      "متواصل": 4383,
      "محضر": 4384,
      "تما": 4385,
      "خن": 4386,
      "أوكر": 4387,
      "صيغ": 4388,
      "تنتهي": 4389,
      "ماس": 4390,
      "إدخال": 4391,
      "تلا": 4392,
      "عمق": 4393,
      "سخ": 4394,
      "ارتباط": 4395,
      "فروع": 4396,
      "مقبول": 4397,
      "عطاء": 4398,
      "مرج": 4399,
      "زمني": 4400,
      "يمر": 4401,
      "انتم": 4402,
      "وفاء": 4403,
      "الإ": 4404,
      "بيضاء": 4405,
      "ميلاد": 4406,
      "ميشال": 4407,
      "اعتمد": 4408,
      "جاهز": 4409,
      "مهاجر": 4410,
      "55": 4411,
      "قتلى": 4412,
      "إسرائيلى": 4413,
      "تتو": 4414,
      "أقدم": 4415,
      "150": 4416,
      "ديون": 4417,
      "هامش": 4418,
      "##اعى": 4419,
      "##مز": 4420,
      "قحطاني": 4421,
      "ضعي": 4422,
      "إخل": 4423,
      "مبرر": 4424,
      "أهالى": 4425,
      "خد": 4426,
      "أنط": 4427,
      "دوم": 4428,
      "غالي": 4429,
      "مسب": 4430,
      "##ونى": 4431,
      "تأخر": 4432,
      "وي": 4433,
      "سمي": 4434,
      "أقوى": 4435,
      "أكمل": 4436,
      "ترشح": 4437,
      "تغلب": 4438,
      "##داب": 4439,
      "جس": 4440,
      "##واح": 4441,
      "ينص": 4442,
      "متى": 4443,
      "##صدر": 4444,
      "فوضى": 4445,
      "حبس": 4446,
      "##انم": 4447,
      "تعل": 4448,
      "##حم": 4449,
      "حشد": 4450,
      "##قدر": 4451,
      "تقوي": 4452,
      "يسمى": 4453,
      "أحب": 4454,
      "محارب": 4455,
      "تعب": 4456,
      "سويدي": 4457,
      "##ليس": 4458,
      "جناح": 4459,
      "معيش": 4460,
      "جهاد": 4461,
      "نأ": 4462,
      "يذ": 4463,
      "عثر": 4464,
      "كسب": 4465,
      "ذي": 4466,
      "هدوء": 4467,
      "اللذ": 4468,
      "2002": 4469,
      "ثلاثي": 4470,
      "##وائي": 4471,
      "تفسير": 4472,
      "تحسن": 4473,
      "تضع": 4474,
      "إما": 4475,
      "تطرق": 4476,
      "##درج": 4477,
      "انتهى": 4478,
      "46": 4479,
      "شمري": 4480,
      "توحيد": 4481,
      "محلل": 4482,
      "41": 4483,
      "حجاج": 4484,
      "##ادن": 4485,
      "##ساب": 4486,
      "مستع": 4487,
      "آب": 4488,
      "أمريكى": 4489,
      "باكستاني": 4490,
      "##سف": 4491,
      "عتيبي": 4492,
      "إنك": 4493,
      "تنوع": 4494,
      "تمسك": 4495,
      "غرام": 4496,
      "يصدر": 4497,
      "حام": 4498,
      "وضوح": 4499,
      "خضر": 4500,
      "43": 4501,
      "##20": 4502,
      "تحكيم": 4503,
      "ضعيف": 4504,
      "برازيل": 4505,
      "##بيت": 4506,
      "اشتراك": 4507,
      "أدل": 4508,
      "مصانع": 4509,
      "##قات": 4510,
      "عظم": 4511,
      "طالما": 4512,
      "##افى": 4513,
      "##اغب": 4514,
      "إدر": 4515,
      "إسم": 4516,
      "يتجاوز": 4517,
      "يأخذ": 4518,
      "مسبق": 4519,
      "مندوب": 4520,
      "إعدام": 4521,
      "##بعد": 4522,
      "بواب": 4523,
      "فاطم": 4524,
      "متق": 4525,
      "صيدا": 4526,
      "39": 4527,
      "##اطف": 4528,
      "ميس": 4529,
      "شام": 4530,
      "يمنع": 4531,
      "أبدى": 4532,
      "إلقاء": 4533,
      "مدرسي": 4534,
      "تنص": 4535,
      "أشرف": 4536,
      "وزاري": 4537,
      "2016": 4538,
      "ليف": 4539,
      "تكرار": 4540,
      "##اطب": 4541,
      "استحقاق": 4542,
      "2017": 4543,
      "مواضي": 4544,
      "نعي": 4545,
      "تموز": 4546,
      "ديف": 4547,
      "يمين": 4548,
      "##بيوتر": 4549,
      "حادي": 4550,
      "نسبي": 4551,
      "جيز": 4552,
      "مواضيع": 4553,
      "##or": 4554,
      "عمري": 4555,
      "##دق": 4556,
      "تمييز": 4557,
      "قتيل": 4558,
      "خلايا": 4559,
      "غادر": 4560,
      "هشام": 4561,
      "##يدر": 4562,
      "مدرج": 4563,
      "أجري": 4564,
      "##عاف": 4565,
      "أنني": 4566,
      "##وقي": 4567,
      "إيطاليا": 4568,
      "ضيق": 4569,
      "طابع": 4570,
      "مكثف": 4571,
      "##صرار": 4572,
      "تعاني": 4573,
      "بطال": 4574,
      "اعتراض": 4575,
      "مطيري": 4576,
      "جاسم": 4577,
      "كوك": 4578,
      "عصام": 4579,
      "ضرائب": 4580,
      "يفت": 4581,
      "تشكي": 4582,
      "ذر": 4583,
      "مقاعد": 4584,
      "فات": 4585,
      "مثاب": 4586,
      "معاصر": 4587,
      "حزيران": 4588,
      "متمر": 4589,
      "أقسام": 4590,
      "فنادق": 4591,
      "انخفض": 4592,
      "##en": 4593,
      "##غو": 4594,
      "عاز": 4595,
      "##تياز": 4596,
      "##ذيب": 4597,
      "برس": 4598,
      "رواتب": 4599,
      "تسمح": 4600,
      "أوقات": 4601,
      "يتو": 4602,
      "اعتقل": 4603,
      "شريط": 4604,
      "دوح": 4605,
      "##اقض": 4606,
      "تقدر": 4607,
      "400": 4608,
      "##غالي": 4609,
      "أخلاقي": 4610,
      "طعن": 4611,
      "##هري": 4612,
      "جسر": 4613,
      "ارتكاب": 4614,
      "##ماوي": 4615,
      "صمت": 4616,
      "يعطي": 4617,
      "إحر": 4618,
      "00": 4619,
      "اشتراكي": 4620,
      "مضمون": 4621,
      "حث": 4622,
      "##رأ": 4623,
      "جع": 4624,
      "تسمي": 4625,
      "طار": 4626,
      "دورى": 4627,
      "إسبانيا": 4628,
      "جنس": 4629,
      "أحلام": 4630,
      "مستعد": 4631,
      "انتقد": 4632,
      "نهج": 4633,
      "إيراد": 4634,
      "رحب": 4635,
      "اندل": 4636,
      "روس": 4637,
      "اعتقد": 4638,
      "اجراء": 4639,
      "قبس": 4640,
      "تبني": 4641,
      "تخلص": 4642,
      "تحي": 4643,
      "دراج": 4644,
      "افتتح": 4645,
      "2001": 4646,
      "مباني": 4647,
      "عطل": 4648,
      "قتال": 4649,
      "مانش": 4650,
      "حروب": 4651,
      "نيسان": 4652,
      "حائل": 4653,
      "معبر": 4654,
      "يكتب": 4655,
      "يحدد": 4656,
      "قاسم": 4657,
      "مراسل": 4658,
      "إنكليزي": 4659,
      "بنى": 4660,
      "تقسيم": 4661,
      "دماء": 4662,
      "عنيف": 4663,
      "مخابر": 4664,
      "47": 4665,
      "##جاز": 4666,
      "نقول": 4667,
      "فوج": 4668,
      "نصوص": 4669,
      "يفعل": 4670,
      "##ic": 4671,
      "التح": 4672,
      "##ar": 4673,
      "حينما": 4674,
      "52": 4675,
      "مطب": 4676,
      "##شير": 4677,
      "تفاوض": 4678,
      "مساجد": 4679,
      "يجوز": 4680,
      "جواز": 4681,
      "مقدار": 4682,
      "حزم": 4683,
      "##ائط": 4684,
      "صنعاء": 4685,
      "واق": 4686,
      "يؤثر": 4687,
      "كثاف": 4688,
      "شفافي": 4689,
      "قمر": 4690,
      "مبين": 4691,
      "تصحي": 4692,
      "معارك": 4693,
      "إث": 4694,
      "حكاي": 4695,
      "ليبر": 4696,
      "تبع": 4697,
      "لحود": 4698,
      "تحاول": 4699,
      "أجي": 4700,
      "أمطار": 4701,
      "مؤثر": 4702,
      "تحري": 4703,
      "آمال": 4704,
      "مدخل": 4705,
      "حقائق": 4706,
      "انتقالي": 4707,
      "شاحن": 4708,
      "ذري": 4709,
      "كرد": 4710,
      "تحديث": 4711,
      "تحصل": 4712,
      "شائع": 4713,
      "##بور": 4714,
      "صياغ": 4715,
      "تطالب": 4716,
      "تبدو": 4717,
      "توي": 4718,
      "##es": 4719,
      "استثن": 4720,
      "يرغب": 4721,
      "مدف": 4722,
      "فيل": 4723,
      "حاسم": 4724,
      "##30": 4725,
      "##اكس": 4726,
      "##اعلي": 4727,
      "إثار": 4728,
      "لوي": 4729,
      "صبر": 4730,
      "شرع": 4731,
      "متأخر": 4732,
      "##بري": 4733,
      "مرف": 4734,
      "عجل": 4735,
      "إصرار": 4736,
      "تطلع": 4737,
      "سأل": 4738,
      "نهيان": 4739,
      "سفن": 4740,
      "معلن": 4741,
      "ساعد": 4742,
      "ملاعب": 4743,
      "هولندي": 4744,
      "أثري": 4745,
      "##ينغ": 4746,
      "أعرف": 4747,
      "طاول": 4748,
      "اكتشف": 4749,
      "تمديد": 4750,
      "سطح": 4751,
      "شيوخ": 4752,
      "إجر": 4753,
      "مستفيد": 4754,
      "##فيع": 4755,
      "اللي": 4756,
      "تحذ": 4757,
      "ممر": 4758,
      "تحتوي": 4759,
      "اساس": 4760,
      "شعراء": 4761,
      "ضيوف": 4762,
      "محرك": 4763,
      "تأسيسي": 4764,
      "حكيم": 4765,
      "ماري": 4766,
      "##اسر": 4767,
      "نعرف": 4768,
      "تتجاوز": 4769,
      "زمان": 4770,
      "متطور": 4771,
      "51": 4772,
      "أوائل": 4773,
      "ينظم": 4774,
      "بولي": 4775,
      "محر": 4776,
      "تعقد": 4777,
      "##ايز": 4778,
      "منسق": 4779,
      "أجزاء": 4780,
      "##لاء": 4781,
      "والى": 4782,
      "اقتراع": 4783,
      "إسكان": 4784,
      "دلال": 4785,
      "حماد": 4786,
      "إرشاد": 4787,
      "مداخل": 4788,
      "مفيد": 4789,
      "منخفض": 4790,
      "##ركي": 4791,
      "ركاب": 4792,
      "أصاب": 4793,
      "قومى": 4794,
      "54": 4795,
      "ترامب": 4796,
      "آر": 4797,
      "تزويد": 4798,
      "جلال": 4799,
      "متج": 4800,
      "تخلي": 4801,
      "كارث": 4802,
      "الان": 4803,
      "إحصاء": 4804,
      "موس": 4805,
      "دوسري": 4806,
      "رمز": 4807,
      "إبل": 4808,
      "ميلان": 4809,
      "جاز": 4810,
      "بيل": 4811,
      "بدا": 4812,
      "محقق": 4813,
      "ترويج": 4814,
      "جبيل": 4815,
      "تأليف": 4816,
      "عري": 4817,
      "##نح": 4818,
      "تحر": 4819,
      "راغب": 4820,
      "منتظر": 4821,
      "تأخذ": 4822,
      "غذاء": 4823,
      "يقيم": 4824,
      "تسديد": 4825,
      "حسام": 4826,
      "محاور": 4827,
      "متزايد": 4828,
      "يقام": 4829,
      "دافع": 4830,
      "##ابير": 4831,
      "حالى": 4832,
      "قس": 4833,
      "شكوى": 4834,
      "أستراليا": 4835,
      "أجيال": 4836,
      "رموز": 4837,
      "دام": 4838,
      "ثقيل": 4839,
      "##اشي": 4840,
      "تولى": 4841,
      "تصنيع": 4842,
      "إسقاط": 4843,
      "عمد": 4844,
      "افريقي": 4845,
      "منفذ": 4846,
      "وافد": 4847,
      "صغار": 4848,
      "لأن": 4849,
      "##يق": 4850,
      "سبأ": 4851,
      "مانشستر": 4852,
      "أيار": 4853,
      "##نئ": 4854,
      "أتمنى": 4855,
      "ره": 4856,
      "##ران": 4857,
      "تتر": 4858,
      "##قول": 4859,
      "تهريب": 4860,
      "صلب": 4861,
      "درع": 4862,
      "تحدد": 4863,
      "نال": 4864,
      "إنتاجي": 4865,
      "ملم": 4866,
      "افريقيا": 4867,
      "##تز": 4868,
      "قاتل": 4869,
      "بروت": 4870,
      "##نتون": 4871,
      "شهود": 4872,
      "واقعي": 4873,
      "##مم": 4874,
      "صحراء": 4875,
      "##مج": 4876,
      "بحير": 4877,
      "احتياطي": 4878,
      "يخص": 4879,
      "أبر": 4880,
      "استخبار": 4881,
      "متمرد": 4882,
      "##دا": 4883,
      "تدفع": 4884,
      "سويد": 4885,
      "تعلن": 4886,
      "49": 4887,
      "قناع": 4888,
      "لام": 4889,
      "استشاري": 4890,
      "مقرب": 4891,
      "نظاف": 4892,
      "حصر": 4893,
      "فول": 4894,
      "جذب": 4895,
      "يستحق": 4896,
      "##أى": 4897,
      "##at": 4898,
      "حمراء": 4899,
      "تزايد": 4900,
      "رون": 4901,
      "##حان": 4902,
      "طراز": 4903,
      "يواصل": 4904,
      "##نياهو": 4905,
      "##اجي": 4906,
      "يزور": 4907,
      "امتداد": 4908,
      "استثنائي": 4909,
      "##ولد": 4910,
      "هادي": 4911,
      "مرشد": 4912,
      "تصحيح": 4913,
      "فرعي": 4914,
      "أسرع": 4915,
      "مهتم": 4916,
      "إزاء": 4917,
      "سيل": 4918,
      "سمح": 4919,
      "نتنياهو": 4920,
      "بلجي": 4921,
      "##طا": 4922,
      "تساؤل": 4923,
      "فائ": 4924,
      "فراغ": 4925,
      "##تاب": 4926,
      "غازي": 4927,
      "أيد": 4928,
      "##فاف": 4929,
      "يرفع": 4930,
      "أوساط": 4931,
      "سكاني": 4932,
      "تقرر": 4933,
      "ينظر": 4934,
      "مساوا": 4935,
      "##فرد": 4936,
      "ركل": 4937,
      "يث": 4938,
      "تكليف": 4939,
      "مؤمن": 4940,
      "مائي": 4941,
      "كوادر": 4942,
      "##al": 4943,
      "طالبان": 4944,
      "خطف": 4945,
      "شباط": 4946,
      "أسرى": 4947,
      "صدم": 4948,
      "حمدان": 4949,
      "لسان": 4950,
      "##طلح": 4951,
      "أحرز": 4952,
      "انعقاد": 4953,
      "جزر": 4954,
      "تقبل": 4955,
      "يجمع": 4956,
      "يمارس": 4957,
      "أدوار": 4958,
      "##وها": 4959,
      "إك": 4960,
      "بحريني": 4961,
      "راف": 4962,
      "##قان": 4963,
      "يمتلك": 4964,
      "##كوم": 4965,
      "حزن": 4966,
      "مضي": 4967,
      "طق": 4968,
      "كلينتون": 4969,
      "تعا": 4970,
      "إسعاف": 4971,
      "تليفزي": 4972,
      "نزع": 4973,
      "##بنى": 4974,
      "مسئولي": 4975,
      "يكفي": 4976,
      "ستي": 4977,
      "شيعي": 4978,
      "رفيع": 4979,
      "عشوائي": 4980,
      "أسما": 4981,
      "تهد": 4982,
      "تدعم": 4983,
      "شاه": 4984,
      "تأثر": 4985,
      "تنازل": 4986,
      "يطرح": 4987,
      "زاوي": 4988,
      "كمبيوتر": 4989,
      "خصوصي": 4990,
      "أسي": 4991,
      "تحفظ": 4992,
      "أشغال": 4993,
      "بشير": 4994,
      "##باه": 4995,
      "تدعو": 4996,
      "تعني": 4997,
      "تستهدف": 4998,
      "ملحوظ": 4999,
      "بيض": 5000,
      "يوفر": 5001,
      "##اعيلي": 5002,
      "##تال": 5003,
      "##نج": 5004,
      "مضاعف": 5005,
      "فوائد": 5006,
      "##ونا": 5007,
      "حوز": 5008,
      "احساء": 5009,
      "نيران": 5010,
      "##تالي": 5011,
      "غزو": 5012,
      "متصل": 5013,
      "تنافس": 5014,
      "استشار": 5015,
      "أواخر": 5016,
      "ناقش": 5017,
      "بخ": 5018,
      "يكت": 5019,
      "56": 5020,
      "بقاع": 5021,
      "يترك": 5022,
      "تجاهل": 5023,
      "أسبوعي": 5024,
      "شير": 5025,
      "##تبط": 5026,
      "شهور": 5027,
      "##صور": 5028,
      "##يفي": 5029,
      "مهدي": 5030,
      "انقط": 5031,
      "تنظيمي": 5032,
      "انتفاض": 5033,
      "##جيري": 5034,
      "##عوم": 5035,
      "عامر": 5036,
      "##ويش": 5037,
      "وجوه": 5038,
      "سلب": 5039,
      "##حى": 5040,
      "تتك": 5041,
      "حديق": 5042,
      "ابي": 5043,
      "57": 5044,
      "عثور": 5045,
      "شارون": 5046,
      "حجز": 5047,
      "تحفي": 5048,
      "تؤثر": 5049,
      "راتب": 5050,
      "هرم": 5051,
      "سداد": 5052,
      "متمثل": 5053,
      "تمهيد": 5054,
      "سوداء": 5055,
      "جارى": 5056,
      "##ائس": 5057,
      "عباد": 5058,
      "قراب": 5059,
      "امتن": 5060,
      "تنطلق": 5061,
      "نفوذ": 5062,
      "##ينيا": 5063,
      "شباك": 5064,
      "قارئ": 5065,
      "تقليل": 5066,
      "53": 5067,
      "طلال": 5068,
      "عياد": 5069,
      "جوهر": 5070,
      "كاد": 5071,
      "##الا": 5072,
      "67": 5073,
      "دوام": 5074,
      "نما": 5075,
      "مكسي": 5076,
      "تدور": 5077,
      "قصد": 5078,
      "مغلق": 5079,
      "أجاب": 5080,
      "فاس": 5081,
      "عملاق": 5082,
      "اختتم": 5083,
      "##كاس": 5084,
      "نزل": 5085,
      "اقترح": 5086,
      "روب": 5087,
      "ميدالي": 5088,
      "##زيف": 5089,
      "محمول": 5090,
      "تلعب": 5091,
      "مصرع": 5092,
      "أراضى": 5093,
      "##ثال": 5094,
      "مصطلح": 5095,
      "يخوض": 5096,
      "تتأ": 5097,
      "##زه": 5098,
      "مات": 5099,
      "##ذاك": 5100,
      "##صلي": 5101,
      "##جواب": 5102,
      "آتي": 5103,
      "##كاني": 5104,
      "تتخذ": 5105,
      "85": 5106,
      "##ايس": 5107,
      "مرز": 5108,
      "يفترض": 5109,
      "جري": 5110,
      "ترخيص": 5111,
      "تعذيب": 5112,
      "##ونغ": 5113,
      "صعد": 5114,
      "استجواب": 5115,
      "طيور": 5116,
      "أريد": 5117,
      "مثلما": 5118,
      "مري": 5119,
      "أوقاف": 5120,
      "يدرك": 5121,
      "يقدر": 5122,
      "قبر": 5123,
      "##اطى": 5124,
      "صافي": 5125,
      "يحضر": 5126,
      "##يراد": 5127,
      "تتبع": 5128,
      "تتمثل": 5129,
      "نقابي": 5130,
      "منف": 5131,
      "علق": 5132,
      "هيل": 5133,
      "مفاجئ": 5134,
      "أسبق": 5135,
      "اللذين": 5136,
      "عقلي": 5137,
      "اعتقاد": 5138,
      "##براط": 5139,
      "مبدع": 5140,
      "بوس": 5141,
      "سوفي": 5142,
      "##امين": 5143,
      "إعمار": 5144,
      "يحل": 5145,
      "عصاب": 5146,
      "مختار": 5147,
      "##زيه": 5148,
      "مراد": 5149,
      "نشأ": 5150,
      "بطرير": 5151,
      "يشار": 5152,
      "تقف": 5153,
      "يوناني": 5154,
      "##اتم": 5155,
      "ادعاء": 5156,
      "تركز": 5157,
      "نكون": 5158,
      "تصعيد": 5159,
      "نصيب": 5160,
      "مرجعي": 5161,
      "توضيح": 5162,
      "زملائ": 5163,
      "صيفي": 5164,
      "إدان": 5165,
      "استقط": 5166,
      "##هيري": 5167,
      "نصب": 5168,
      "##طين": 5169,
      "بوك": 5170,
      "طيار": 5171,
      "رخص": 5172,
      "تنوي": 5173,
      "إسماعيلي": 5174,
      "جين": 5175,
      "عريض": 5176,
      "متل": 5177,
      "جبر": 5178,
      "##بيا": 5179,
      "أجرى": 5180,
      "##اصب": 5181,
      "نيوز": 5182,
      "يتقدم": 5183,
      "رأسم": 5184,
      "جاك": 5185,
      "خطيب": 5186,
      "##بك": 5187,
      "مشوار": 5188,
      "خاطئ": 5189,
      "يهدد": 5190,
      "يقال": 5191,
      "يقبل": 5192,
      "##صن": 5193,
      "سلفي": 5194,
      "193": 5195,
      "تمكين": 5196,
      "أون": 5197,
      "يعيد": 5198,
      "ارتكب": 5199,
      "##وتي": 5200,
      "حامد": 5201,
      "ممن": 5202,
      "يساهم": 5203,
      "طاقم": 5204,
      "غن": 5205,
      "64": 5206,
      "تضخم": 5207,
      "##طيل": 5208,
      "معوق": 5209,
      "سلف": 5210,
      "أسوأ": 5211,
      "عرفات": 5212,
      "ذكي": 5213,
      "عارض": 5214,
      "##اوب": 5215,
      "لوائح": 5216,
      "تغذي": 5217,
      "تساهم": 5218,
      "خفيف": 5219,
      "انتماء": 5220,
      "تتراوح": 5221,
      "مشعل": 5222,
      "وظيفي": 5223,
      "غانم": 5224,
      "متشدد": 5225,
      "تحذير": 5226,
      "58": 5227,
      "مالكي": 5228,
      "يدعى": 5229,
      "قصص": 5230,
      "فوري": 5231,
      "نفوس": 5232,
      "سماء": 5233,
      "أمثل": 5234,
      "يخدم": 5235,
      "نهوض": 5236,
      "##فتاح": 5237,
      "علاء": 5238,
      "##زون": 5239,
      "##ثري": 5240,
      "تمرير": 5241,
      "سيناريو": 5242,
      "تقت": 5243,
      "وسطى": 5244,
      "قبائل": 5245,
      "طارئ": 5246,
      "زجاج": 5247,
      "##وضي": 5248,
      "##افز": 5249,
      "##زياء": 5250,
      "62": 5251,
      "ركن": 5252,
      "فقدان": 5253,
      "كريست": 5254,
      "أسنان": 5255,
      "تصدي": 5256,
      "##ارى": 5257,
      "بارد": 5258,
      "سراح": 5259,
      "تداعي": 5260,
      "جماهيري": 5261,
      "أخطر": 5262,
      "يعبر": 5263,
      "شيع": 5264,
      "حش": 5265,
      "مجد": 5266,
      "جير": 5267,
      "زائر": 5268,
      "هواتف": 5269,
      "كيميائي": 5270,
      "ملاحق": 5271,
      "عس": 5272,
      "أعاد": 5273,
      "مسح": 5274,
      "فك": 5275,
      "مصور": 5276,
      "صقر": 5277,
      "66": 5278,
      "نيجيري": 5279,
      "صبي": 5280,
      "غضون": 5281,
      "منى": 5282,
      "منير": 5283,
      "مستجد": 5284,
      "يتناول": 5285,
      "تدفق": 5286,
      "حدودي": 5287,
      "##قاب": 5288,
      "التهاب": 5289,
      "فاروق": 5290,
      "أجور": 5291,
      "تأخير": 5292,
      "منز": 5293,
      "راج": 5294,
      "جزئي": 5295,
      "مفترض": 5296,
      "ثلث": 5297,
      "دن": 5298,
      "قفز": 5299,
      "##غاني": 5300,
      "حيال": 5301,
      "مفوضي": 5302,
      "ثوري": 5303,
      "مسافر": 5304,
      "إثبات": 5305,
      "رياح": 5306,
      "إيد": 5307,
      "خب": 5308,
      "استعراض": 5309,
      "عبو": 5310,
      "تزوير": 5311,
      "تتمتع": 5312,
      "يتس": 5313,
      "##منت": 5314,
      "دما": 5315,
      "##شأ": 5316,
      "صداق": 5317,
      "زيت": 5318,
      "حداد": 5319,
      "إنفاق": 5320,
      "جلد": 5321,
      "أغلق": 5322,
      "خلل": 5323,
      "##ايش": 5324,
      "عبور": 5325,
      "كندا": 5326,
      "استيراد": 5327,
      "مأس": 5328,
      "يحب": 5329,
      "غامدي": 5330,
      "انقسام": 5331,
      "عنصري": 5332,
      "##فلون": 5333,
      "وقائع": 5334,
      "فيفا": 5335,
      "فرج": 5336,
      "فلاح": 5337,
      "مستند": 5338,
      "##خين": 5339,
      "اصط": 5340,
      "فصائل": 5341,
      "فاعلي": 5342,
      "زب": 5343,
      "تري": 5344,
      "نل": 5345,
      "وفر": 5346,
      "دواء": 5347,
      "معطي": 5348,
      "##لندا": 5349,
      "##فلونزا": 5350,
      "ميت": 5351,
      "يونان": 5352,
      "04": 5353,
      "نمس": 5354,
      "حمام": 5355,
      "منه": 5356,
      "محرر": 5357,
      "كردي": 5358,
      "##بيه": 5359,
      "نيك": 5360,
      "يذهب": 5361,
      "رامي": 5362,
      "برلين": 5363,
      "آفاق": 5364,
      "منهج": 5365,
      "مفاهيم": 5366,
      "ذاك": 5367,
      "عمراني": 5368,
      "قذافي": 5369,
      "##فن": 5370,
      "عدنان": 5371,
      "حرف": 5372,
      "افتر": 5373,
      "يناقش": 5374,
      "بت": 5375,
      "طفول": 5376,
      "عزم": 5377,
      "بنود": 5378,
      "يمنح": 5379,
      "تتطلب": 5380,
      "ترجي": 5381,
      "فلسف": 5382,
      "كاث": 5383,
      "أعراض": 5384,
      "كائن": 5385,
      "تلوث": 5386,
      "قلع": 5387,
      "##سار": 5388,
      "امتل": 5389,
      "منط": 5390,
      "شكا": 5391,
      "##اذب": 5392,
      "لطيف": 5393,
      "##شين": 5394,
      "مبت": 5395,
      "تختلف": 5396,
      "قمع": 5397,
      "يخل": 5398,
      "مسائل": 5399,
      "##أنت": 5400,
      "لاحظ": 5401,
      "جرحى": 5402,
      "تسير": 5403,
      "##he": 5404,
      "فوجئ": 5405,
      "نداء": 5406,
      "يوناي": 5407,
      "اعتذار": 5408,
      "##واتي": 5409,
      "لقائ": 5410,
      "شبابي": 5411,
      "سنيور": 5412,
      "##تياح": 5413,
      "وه": 5414,
      "77": 5415,
      "جنبل": 5416,
      "ردود": 5417,
      "جالي": 5418,
      "وقاي": 5419,
      "احتل": 5420,
      "اجت": 5421,
      "نك": 5422,
      "ارتقاء": 5423,
      "##اهل": 5424,
      "خاض": 5425,
      "يسجل": 5426,
      "تايمز": 5427,
      "نفاي": 5428,
      "حديدي": 5429,
      "يدعم": 5430,
      "##ضحي": 5431,
      "يونايتد": 5432,
      "##وجب": 5433,
      "##ئك": 5434,
      "بساط": 5435,
      "توم": 5436,
      "سائد": 5437,
      "عسير": 5438,
      "250": 5439,
      "مطرب": 5440,
      "ضرر": 5441,
      "شيك": 5442,
      "انتباه": 5443,
      "##دونيسي": 5444,
      "جبال": 5445,
      "راعي": 5446,
      "رؤوس": 5447,
      "ماليزي": 5448,
      "طلق": 5449,
      "خرط": 5450,
      "تدهور": 5451,
      "ذو": 5452,
      "تسلي": 5453,
      "تعاوني": 5454,
      "مظل": 5455,
      "هادئ": 5456,
      "سبأنت": 5457,
      "تهي": 5458,
      "حاسب": 5459,
      "وح": 5460,
      "##سيا": 5461,
      "هير": 5462,
      "إمبراط": 5463,
      "باع": 5464,
      "72": 5465,
      "سويسري": 5466,
      "##باع": 5467,
      "##غى": 5468,
      "كروي": 5469,
      "داعم": 5470,
      "ذكور": 5471,
      "جنبلاط": 5472,
      "روما": 5473,
      "تقد": 5474,
      "مطاعم": 5475,
      "أرى": 5476,
      "ائتم": 5477,
      "ميلي": 5478,
      "خم": 5479,
      "61": 5480,
      "ترفض": 5481,
      "أفغاني": 5482,
      "ملامح": 5483,
      "يختلف": 5484,
      "إيا": 5485,
      "تثبيت": 5486,
      "يظل": 5487,
      "تمتلك": 5488,
      "قلم": 5489,
      "لين": 5490,
      "##اعيد": 5491,
      "أشد": 5492,
      "63": 5493,
      "براء": 5494,
      "قابض": 5495,
      "حزبي": 5496,
      "أولئك": 5497,
      "خصص": 5498,
      "##اءل": 5499,
      "ابتكار": 5500,
      "لب": 5501,
      "أود": 5502,
      "سقف": 5503,
      "تمنح": 5504,
      "أحسن": 5505,
      "مطلب": 5506,
      "تبحث": 5507,
      "امتياز": 5508,
      "سور": 5509,
      "تعداد": 5510,
      "تنس": 5511,
      "نجيب": 5512,
      "##جام": 5513,
      "أشع": 5514,
      "معالم": 5515,
      "وفاق": 5516,
      "يعكس": 5517,
      "##ونه": 5518,
      "متكرر": 5519,
      "حرج": 5520,
      "تزامن": 5521,
      "مزد": 5522,
      "شاء": 5523,
      "##وزي": 5524,
      "##برت": 5525,
      "بدني": 5526,
      "صراح": 5527,
      "95": 5528,
      "إنش": 5529,
      "##01": 5530,
      "لمس": 5531,
      "يكشف": 5532,
      "منشأ": 5533,
      "سيتي": 5534,
      "آداب": 5535,
      "يعان": 5536,
      "##شيط": 5537,
      "##قود": 5538,
      "مناهج": 5539,
      "دفاعي": 5540,
      "منطلق": 5541,
      "استعان": 5542,
      "##زح": 5543,
      "فخر": 5544,
      "##وبى": 5545,
      "مفروض": 5546,
      "مفرد": 5547,
      "رزق": 5548,
      "يتولى": 5549,
      "اختف": 5550,
      "دان": 5551,
      "تقاليد": 5552,
      "يدل": 5553,
      "مناصب": 5554,
      "برتغالي": 5555,
      "توقيف": 5556,
      "باير": 5557,
      "شيوعي": 5558,
      "إنذار": 5559,
      "قنابل": 5560,
      "مفاجأ": 5561,
      "##دب": 5562,
      "قصيم": 5563,
      "جدوى": 5564,
      "شاي": 5565,
      "سا": 5566,
      "يضمن": 5567,
      "أخلاق": 5568,
      "نضال": 5569,
      "68": 5570,
      "تحرر": 5571,
      "يسار": 5572,
      "هار": 5573,
      "##مداد": 5574,
      "يرد": 5575,
      "جوال": 5576,
      "##وند": 5577,
      "99": 5578,
      "دروس": 5579,
      "أوقف": 5580,
      "##وحي": 5581,
      "شفيق": 5582,
      "آنذاك": 5583,
      "ثوار": 5584,
      "زرع": 5585,
      "فرز": 5586,
      "مركزى": 5587,
      "تنفذ": 5588,
      "أوامر": 5589,
      "أرواح": 5590,
      "ترا": 5591,
      "##مدي": 5592,
      "هروب": 5593,
      "نواف": 5594,
      "##جاء": 5595,
      "معاق": 5596,
      "ضوابط": 5597,
      "كندي": 5598,
      "##درالي": 5599,
      "عصبي": 5600,
      "يتابع": 5601,
      "يقضي": 5602,
      "59": 5603,
      "##عيم": 5604,
      "أشجار": 5605,
      "معادل": 5606,
      "##تيم": 5607,
      "جنيف": 5608,
      "191": 5609,
      "رمي": 5610,
      "متتالي": 5611,
      "76": 5612,
      "توزع": 5613,
      "##امى": 5614,
      "مضى": 5615,
      "مشجع": 5616,
      "أبعد": 5617,
      "قيود": 5618,
      "##رخ": 5619,
      "ألبوم": 5620,
      "موضوعي": 5621,
      "مهل": 5622,
      "تورط": 5623,
      "ديفيد": 5624,
      "وجب": 5625,
      "أرجنتيني": 5626,
      "##ظن": 5627,
      "تعاطي": 5628,
      "يهم": 5629,
      "ويل": 5630,
      "أبعاد": 5631,
      "مكاسب": 5632,
      "زور": 5633,
      "مرح": 5634,
      "مفتش": 5635,
      "موزع": 5636,
      "مستوا": 5637,
      "03": 5638,
      "##زى": 5639,
      "قرض": 5640,
      "لولا": 5641,
      "نجران": 5642,
      "انقطاع": 5643,
      "192": 5644,
      "خصم": 5645,
      "يحتوي": 5646,
      "سماع": 5647,
      "أكل": 5648,
      "تفقد": 5649,
      "كارل": 5650,
      "روائي": 5651,
      "حصيل": 5652,
      "يتخذ": 5653,
      "ينتهي": 5654,
      "تتعرض": 5655,
      "بوتين": 5656,
      "ميث": 5657,
      "علاو": 5658,
      "وص": 5659,
      "وفي": 5660,
      "استهداف": 5661,
      "ابتعاد": 5662,
      "قصور": 5663,
      "##تني": 5664,
      "الأ": 5665,
      "داي": 5666,
      "عفو": 5667,
      "تطلب": 5668,
      "##تفل": 5669,
      "توافر": 5670,
      "مرسي": 5671,
      "تعطي": 5672,
      "ضريب": 5673,
      "شتى": 5674,
      "##is": 5675,
      "خزان": 5676,
      "تفرض": 5677,
      "منتشر": 5678,
      "تهنئ": 5679,
      "حرام": 5680,
      "مصد": 5681,
      "##اثي": 5682,
      "هدم": 5683,
      "شبان": 5684,
      "120": 5685,
      "شجاع": 5686,
      "نزول": 5687,
      "01": 5688,
      "لحوم": 5689,
      "طاهر": 5690,
      "##ديس": 5691,
      "مبع": 5692,
      "يثير": 5693,
      "موصل": 5694,
      "أقباط": 5695,
      "##دان": 5696,
      "ترفيهي": 5697,
      "##راد": 5698,
      "إقناع": 5699,
      "مواهب": 5700,
      "تشخيص": 5701,
      "هندسي": 5702,
      "نعمل": 5703,
      "##اوين": 5704,
      "بلوغ": 5705,
      "بصر": 5706,
      "نوه": 5707,
      "عاطل": 5708,
      "معلق": 5709,
      "فقراء": 5710,
      "ذم": 5711,
      "تشكيلي": 5712,
      "يفيد": 5713,
      "1998": 5714,
      "منشور": 5715,
      "رجب": 5716,
      "##ماج": 5717,
      "تعطيل": 5718,
      "اقتحام": 5719,
      "ساب": 5720,
      "أحادي": 5721,
      "تويتر": 5722,
      "يتف": 5723,
      "نبات": 5724,
      "تساءل": 5725,
      "طلع": 5726,
      "##احظ": 5727,
      "##قذ": 5728,
      "مفكر": 5729,
      "يان": 5730,
      "تمنع": 5731,
      "هرب": 5732,
      "لحم": 5733,
      "ستار": 5734,
      "يسير": 5735,
      "مقص": 5736,
      "انني": 5737,
      "##همال": 5738,
      "رباعي": 5739,
      "شجر": 5740,
      "تكشف": 5741,
      "حسني": 5742,
      "بلا": 5743,
      "تربط": 5744,
      "نستطيع": 5745,
      "حساسي": 5746,
      "##وشي": 5747,
      "إناث": 5748,
      "قنبل": 5749,
      "ترسي": 5750,
      "بض": 5751,
      "نظامي": 5752,
      "إيف": 5753,
      "رواد": 5754,
      "##با": 5755,
      "حذ": 5756,
      "تنتظر": 5757,
      "ياسين": 5758,
      "71": 5759,
      "عريق": 5760,
      "رفق": 5761,
      "باطن": 5762,
      "مناور": 5763,
      "أجمل": 5764,
      "##ودع": 5765,
      "جلي": 5766,
      "إجماع": 5767,
      "مقدر": 5768,
      "يتحمل": 5769,
      "مستقر": 5770,
      "##سعيد": 5771,
      "دمار": 5772,
      "عثماني": 5773,
      "أخو": 5774,
      "متضرر": 5775,
      "تدخين": 5776,
      "##قص": 5777,
      "##وغان": 5778,
      "143": 5779,
      "شريح": 5780,
      "قيل": 5781,
      "بضائع": 5782,
      "تطرح": 5783,
      "ناد": 5784,
      "حمي": 5785,
      "مجمل": 5786,
      "عمالي": 5787,
      "تقود": 5788,
      "73": 5789,
      "جنب": 5790,
      "يقارب": 5791,
      "نماذج": 5792,
      "مجيد": 5793,
      "دمج": 5794,
      "متواجد": 5795,
      "74": 5796,
      "إحي": 5797,
      "##it": 5798,
      "##فف": 5799,
      "سح": 5800,
      "تقيم": 5801,
      "يتعين": 5802,
      "إستاد": 5803,
      "تفيد": 5804,
      "جناي": 5805,
      "قاسي": 5806,
      "هاشم": 5807,
      "فقير": 5808,
      "ممل": 5809,
      "فضيل": 5810,
      "حيدر": 5811,
      "بورسعيد": 5812,
      "محال": 5813,
      "أفعال": 5814,
      "مختبر": 5815,
      "أعقاب": 5816,
      "ليون": 5817,
      "فين": 5818,
      "مواكب": 5819,
      "مهد": 5820,
      "لات": 5821,
      "حرق": 5822,
      "زهراني": 5823,
      "غناء": 5824,
      "إبلاغ": 5825,
      "تهدئ": 5826,
      "لقي": 5827,
      "ظن": 5828,
      "##لزم": 5829,
      "إحصائي": 5830,
      "متغير": 5831,
      "##شوف": 5832,
      "زعماء": 5833,
      "معتد": 5834,
      "##برا": 5835,
      "اجتمع": 5836,
      "تفاؤل": 5837,
      "ملاك": 5838,
      "قصائد": 5839,
      "أقلي": 5840,
      "##مول": 5841,
      "بضع": 5842,
      "إخلاء": 5843,
      "كات": 5844,
      "##ra": 5845,
      "يتوقف": 5846,
      "تقليص": 5847,
      "يتيح": 5848,
      "يأتى": 5849,
      "متبادل": 5850,
      "نأمل": 5851,
      "بندر": 5852,
      "تستضيف": 5853,
      "تظل": 5854,
      "ابتداء": 5855,
      "##لندي": 5856,
      "##جى": 5857,
      "روت": 5858,
      "إخب": 5859,
      "##وست": 5860,
      "إحراز": 5861,
      "انتحاري": 5862,
      "إبعاد": 5863,
      "##ويه": 5864,
      "تول": 5865,
      "أنف": 5866,
      "ثو": 5867,
      "صريح": 5868,
      "تعكس": 5869,
      "##طفاء": 5870,
      "إبقاء": 5871,
      "يفتح": 5872,
      "خضراء": 5873,
      "أغراض": 5874,
      "بطريرك": 5875,
      "شاطئ": 5876,
      "78": 5877,
      "توج": 5878,
      "مواعيد": 5879,
      "##باب": 5880,
      "تألق": 5881,
      "اوب": 5882,
      "تأشير": 5883,
      "مجاني": 5884,
      "صحفى": 5885,
      "نعيش": 5886,
      "ترميم": 5887,
      "أطلسي": 5888,
      "مسم": 5889,
      "مريم": 5890,
      "استبعاد": 5891,
      "دموي": 5892,
      "يحر": 5893,
      "راب": 5894,
      "زيتون": 5895,
      "استقطاب": 5896,
      "عطي": 5897,
      "حصان": 5898,
      "عميل": 5899,
      "فرانك": 5900,
      "يرجع": 5901,
      "يتق": 5902,
      "يتد": 5903,
      "تعبر": 5904,
      "ترفع": 5905,
      "أقوال": 5906,
      "هاج": 5907,
      "اختراق": 5908,
      "حريص": 5909,
      "##سيد": 5910,
      "نافذ": 5911,
      "##ازر": 5912,
      "أمثال": 5913,
      "هت": 5914,
      "إعاق": 5915,
      "تروي": 5916,
      "هدد": 5917,
      "جازان": 5918,
      "الماني": 5919,
      "إهمال": 5920,
      "600": 5921,
      "##كاري": 5922,
      "تبوك": 5923,
      "##ديع": 5924,
      "مثالي": 5925,
      "تتحدث": 5926,
      "دعاي": 5927,
      "استماع": 5928,
      "شرائح": 5929,
      "كرب": 5930,
      "عائلي": 5931,
      "حقل": 5932,
      "ساخ": 5933,
      "إط": 5934,
      "أسماك": 5935,
      "مرار": 5936,
      "إياب": 5937,
      "ركز": 5938,
      "تتميز": 5939,
      "جراحي": 5940,
      "رونالد": 5941,
      "استعرض": 5942,
      "هاجم": 5943,
      "خيال": 5944,
      "زن": 5945,
      "استمع": 5946,
      "هدي": 5947,
      "أغذي": 5948,
      "هداف": 5949,
      "مستورد": 5950,
      "راد": 5951,
      "##اريف": 5952,
      "يوضح": 5953,
      "ملائم": 5954,
      "سول": 5955,
      "يسي": 5956,
      "دموع": 5957,
      "اقتراب": 5958,
      "1996": 5959,
      "اطلع": 5960,
      "عدا": 5961,
      "ملحق": 5962,
      "إلح": 5963,
      "يخضع": 5964,
      "##ثيوبي": 5965,
      "آلام": 5966,
      "أردوغان": 5967,
      "تدريجي": 5968,
      "باح": 5969,
      "لاعبو": 5970,
      "تراخ": 5971,
      "منزلي": 5972,
      "أضع": 5973,
      "شكاوى": 5974,
      "اكتتاب": 5975,
      "يونس": 5976,
      "إحداث": 5977,
      "##لكي": 5978,
      "انتشر": 5979,
      "إسلامى": 5980,
      "يتحول": 5981,
      "استيعاب": 5982,
      "##طور": 5983,
      "رض": 5984,
      "تمارس": 5985,
      "##سبق": 5986,
      "البر": 5987,
      "إندونيسي": 5988,
      "مظ": 5989,
      "##طاف": 5990,
      "##غا": 5991,
      "ننت": 5992,
      "إحباط": 5993,
      "يرب": 5994,
      "تهدد": 5995,
      "ملا": 5996,
      "##الله": 5997,
      "أعمار": 5998,
      "مساكن": 5999,
      "ميليشي": 6000,
      "98": 6001,
      "الياس": 6002,
      "مراع": 6003,
      "سلوكي": 6004,
      "أنقر": 6005,
      "سال": 6006,
      "فطر": 6007,
      "تعميم": 6008,
      "تقاعد": 6009,
      "حسنى": 6010,
      "إساء": 6011,
      "صغر": 6012,
      "أوسع": 6013,
      "يعادل": 6014,
      "##كوك": 6015,
      "82": 6016,
      "كاثولي": 6017,
      "اور": 6018,
      "تطرف": 6019,
      "تتحول": 6020,
      "مصمم": 6021,
      "مكتوب": 6022,
      "أشر": 6023,
      "##ريبي": 6024,
      "قرأ": 6025,
      "أدائ": 6026,
      "69": 6027,
      "مشي": 6028,
      "تتولى": 6029,
      "يفضل": 6030,
      "ممتلك": 6031,
      "مقوم": 6032,
      "تدابير": 6033,
      "حاجز": 6034,
      "خالي": 6035,
      "##غرق": 6036,
      "قمح": 6037,
      "انش": 6038,
      "شركاء": 6039,
      "اتباع": 6040,
      "باش": 6041,
      "رسمى": 6042,
      "استبدال": 6043,
      "محس": 6044,
      "فايز": 6045,
      "##اليم": 6046,
      "إحساس": 6047,
      "نمط": 6048,
      "دمر": 6049,
      "مستحيل": 6050,
      "انفتاح": 6051,
      "كوكب": 6052,
      "هارب": 6053,
      "استناد": 6054,
      "ضخ": 6055,
      "##عكس": 6056,
      "تحصيل": 6057,
      "دباب": 6058,
      "مراعا": 6059,
      "عقول": 6060,
      "جلب": 6061,
      "جيم": 6062,
      "مؤامر": 6063,
      "صانع": 6064,
      "خوري": 6065,
      "سائل": 6066,
      "ترح": 6067,
      "يفرض": 6068,
      "##بان": 6069,
      "##غام": 6070,
      "مسبوق": 6071,
      "أضح": 6072,
      "بلي": 6073,
      "مستدام": 6074,
      "يدرس": 6075,
      "ازدهار": 6076,
      "##لحق": 6077,
      "نجل": 6078,
      "أتر": 6079,
      "فاضل": 6080,
      "تجني": 6081,
      "88": 6082,
      "إعجاب": 6083,
      "مصداقي": 6084,
      "أصيل": 6085,
      "إحياء": 6086,
      "روماني": 6087,
      "يحق": 6088,
      "يدور": 6089,
      "ساحلي": 6090,
      "يستع": 6091,
      "أمسي": 6092,
      "81": 6093,
      "يؤمن": 6094,
      "انح": 6095,
      "حجار": 6096,
      "أخص": 6097,
      "داني": 6098,
      "##ادين": 6099,
      "أديب": 6100,
      "ثمان": 6101,
      "مبني": 6102,
      "تلمي": 6103,
      "غرار": 6104,
      "إقال": 6105,
      "ناجم": 6106,
      "##انو": 6107,
      "ألي": 6108,
      "سكري": 6109,
      "##ثيف": 6110,
      "تضي": 6111,
      "يحتل": 6112,
      "مدنى": 6113,
      "تعدد": 6114,
      "أصغر": 6115,
      "تطلق": 6116,
      "تكثيف": 6117,
      "طيل": 6118,
      "سباح": 6119,
      "لق": 6120,
      "##قاع": 6121,
      "نجا": 6122,
      "أمه": 6123,
      "رافض": 6124,
      "وسع": 6125,
      "كبد": 6126,
      "84": 6127,
      "يستقبل": 6128,
      "96": 6129,
      "مزايا": 6130,
      "##ضائ": 6131,
      "إنت": 6132,
      "دفن": 6133,
      "رقمي": 6134,
      "تجرى": 6135,
      "كاري": 6136,
      "معروض": 6137,
      "هيمن": 6138,
      "قوائم": 6139,
      "مولد": 6140,
      "حمز": 6141,
      "أنهى": 6142,
      "تهيئ": 6143,
      "طور": 6144,
      "##ضن": 6145,
      "تصاعد": 6146,
      "هولندا": 6147,
      "مصنف": 6148,
      "##ايت": 6149,
      "مواليد": 6150,
      "أسيوط": 6151,
      "معاش": 6152,
      "إنجاح": 6153,
      "طلاق": 6154,
      "سائح": 6155,
      "محامى": 6156,
      "إفريقي": 6157,
      "##كك": 6158,
      "##عن": 6159,
      "##يلاء": 6160,
      "مجرم": 6161,
      "فال": 6162,
      "سرور": 6163,
      "كتائب": 6164,
      "ختم": 6165,
      "86": 6166,
      "يفكر": 6167,
      "تايل": 6168,
      "يوف": 6169,
      "تنتج": 6170,
      "##قيد": 6171,
      "مفقود": 6172,
      "اتصل": 6173,
      "يتبع": 6174,
      "ينتج": 6175,
      "عقاب": 6176,
      "صليب": 6177,
      "##ضب": 6178,
      "أدا": 6179,
      "ساخن": 6180,
      "##ثم": 6181,
      "تفتح": 6182,
      "تأمل": 6183,
      "##كالي": 6184,
      "ماج": 6185,
      "##ونيا": 6186,
      "شتاء": 6187,
      "حمص": 6188,
      "يتهم": 6189,
      "برون": 6190,
      "أنور": 6191,
      "رمزي": 6192,
      "فصول": 6193,
      "رتب": 6194,
      "أكثري": 6195,
      "يثبت": 6196,
      "تجمي": 6197,
      "يحظى": 6198,
      "عابد": 6199,
      "مدعوم": 6200,
      "عذ": 6201,
      "بس": 6202,
      "خريط": 6203,
      "خلاص": 6204,
      "إغاث": 6205,
      "إيصال": 6206,
      "كومي": 6207,
      "برد": 6208,
      "حوض": 6209,
      "ذا": 6210,
      "##غرس": 6211,
      "عضل": 6212,
      "##صب": 6213,
      "تمتد": 6214,
      "كفيل": 6215,
      "اير": 6216,
      "إعلامى": 6217,
      "تليفزيون": 6218,
      "يشبه": 6219,
      "أنظار": 6220,
      "تمرد": 6221,
      "امتلاك": 6222,
      "محف": 6223,
      "##سرا": 6224,
      "مبعوث": 6225,
      "يأمل": 6226,
      "05": 6227,
      "تتويج": 6228,
      "يعزز": 6229,
      "دارفور": 6230,
      "روض": 6231,
      "##خي": 6232,
      "مستهدف": 6233,
      "##ظهار": 6234,
      "مخط": 6235,
      "انعكاس": 6236,
      "حسبما": 6237,
      "أنس": 6238,
      "يرأس": 6239,
      "##عاش": 6240,
      "##اقم": 6241,
      "يعق": 6242,
      "##ساءل": 6243,
      "وعود": 6244,
      "إصلاحي": 6245,
      "97": 6246,
      "يسبب": 6247,
      "حرمان": 6248,
      "تراثي": 6249,
      "طوائف": 6250,
      "##بو": 6251,
      "زملاء": 6252,
      "يشغل": 6253,
      "احتجاجي": 6254,
      "مروان": 6255,
      "معقد": 6256,
      "بلط": 6257,
      "شرطي": 6258,
      "زلزال": 6259,
      "##عا": 6260,
      "ليبرالي": 6261,
      "تضحي": 6262,
      "##ستير": 6263,
      "برز": 6264,
      "##ليني": 6265,
      "79": 6266,
      "التف": 6267,
      "غو": 6268,
      "أوكرانيا": 6269,
      "طباع": 6270,
      "##افسي": 6271,
      "كوب": 6272,
      "إطفاء": 6273,
      "06": 6274,
      "يعنى": 6275,
      "87": 6276,
      "معيشي": 6277,
      "موق": 6278,
      "##يطان": 6279,
      "يحفظ": 6280,
      "متعب": 6281,
      "طلابي": 6282,
      "علماني": 6283,
      "بنا": 6284,
      "##تماعى": 6285,
      "تفعل": 6286,
      "##صير": 6287,
      "تثبت": 6288,
      "هان": 6289,
      "لويس": 6290,
      "##كز": 6291,
      "واعد": 6292,
      "أغاني": 6293,
      "1997": 6294,
      "بنزين": 6295,
      "مهدد": 6296,
      "تشت": 6297,
      "يسر": 6298,
      "##ريج": 6299,
      "عول": 6300,
      "صام": 6301,
      "نؤ": 6302,
      "دراما": 6303,
      "يصف": 6304,
      "استقر": 6305,
      "عناوين": 6306,
      "تكمن": 6307,
      "نجاد": 6308,
      "امتد": 6309,
      "##طبق": 6310,
      "حساس": 6311,
      "ترقي": 6312,
      "83": 6313,
      "ملموس": 6314,
      "جال": 6315,
      "تتمكن": 6316,
      "سويسرا": 6317,
      "مجتم": 6318,
      "سجناء": 6319,
      "تلي": 6320,
      "إتمام": 6321,
      "800": 6322,
      "يتز": 6323,
      "تكامل": 6324,
      "مقصود": 6325,
      "حتي": 6326,
      "تجميد": 6327,
      "##وارث": 6328,
      "اول": 6329,
      "##وتو": 6330,
      "جواد": 6331,
      "أعضائ": 6332,
      "جوف": 6333,
      "قرع": 6334,
      "##وكول": 6335,
      "رقص": 6336,
      "سائر": 6337,
      "91": 6338,
      "قطيف": 6339,
      "توثيق": 6340,
      "##اجتماعى": 6341,
      "تحظى": 6342,
      "تخلف": 6343,
      "مجتمعي": 6344,
      "مبدئي": 6345,
      "مناهض": 6346,
      "مراه": 6347,
      "مجاهد": 6348,
      "ضاحي": 6349,
      "باس": 6350,
      "إخطار": 6351,
      "رفح": 6352,
      "باط": 6353,
      "كذا": 6354,
      "صياد": 6355,
      "يرافق": 6356,
      "بايرن": 6357,
      "2018": 6358,
      "خطب": 6359,
      "تنافسي": 6360,
      "أعطى": 6361,
      "جمارك": 6362,
      "خصوم": 6363,
      "تقويم": 6364,
      "صوتي": 6365,
      "جعفر": 6366,
      "مايكل": 6367,
      "##سكي": 6368,
      "حواج": 6369,
      "تعقيد": 6370,
      "أبيب": 6371,
      "نشطاء": 6372,
      "فاسد": 6373,
      "##بطال": 6374,
      "إيجار": 6375,
      "مراهق": 6376,
      "ريم": 6377,
      "يتك": 6378,
      "عدن": 6379,
      "لوك": 6380,
      "حوثي": 6381,
      "هلالي": 6382,
      "تعيد": 6383,
      "##غرب": 6384,
      "وزع": 6385,
      "ترتفع": 6386,
      "جثث": 6387,
      "إثن": 6388,
      "غم": 6389,
      "منطقي": 6390,
      "بكين": 6391,
      "##ion": 6392,
      "مكافأ": 6393,
      "الاجتماعى": 6394,
      "استلام": 6395,
      "أكون": 6396,
      "ألقا": 6397,
      "يغادر": 6398,
      "هموم": 6399,
      "##ازع": 6400,
      "تخدم": 6401,
      "موب": 6402,
      "أرز": 6403,
      "ميادين": 6404,
      "فقيد": 6405,
      "تخزين": 6406,
      "مرئي": 6407,
      "سوا": 6408,
      "تالى": 6409,
      "كير": 6410,
      "وساط": 6411,
      "تفادي": 6412,
      "حصد": 6413,
      "خبز": 6414,
      "غنائي": 6415,
      "معرب": 6416,
      "يستضيف": 6417,
      "حدائق": 6418,
      "علوي": 6419,
      "أنتم": 6420,
      "متقاعد": 6421,
      "عماني": 6422,
      "هادف": 6423,
      "جمالي": 6424,
      "##ليو": 6425,
      "يصعب": 6426,
      "بعل": 6427,
      "خرطوم": 6428,
      "بصري": 6429,
      "يدير": 6430,
      "##سلام": 6431,
      "إفطار": 6432,
      "نبيه": 6433,
      "مرزوق": 6434,
      "يرح": 6435,
      "إخباري": 6436,
      "##اكه": 6437,
      "متمني": 6438,
      "عروس": 6439,
      "زائد": 6440,
      "عار": 6441,
      "سدد": 6442,
      "##يرو": 6443,
      "دمي": 6444,
      "مشتبه": 6445,
      "درويش": 6446,
      "مخلف": 6447,
      "02": 6448,
      "07": 6449,
      "إدراك": 6450,
      "إنني": 6451,
      "##ادف": 6452,
      "مطعم": 6453,
      "حواجز": 6454,
      "تيس": 6455,
      "داف": 6456,
      "اعتد": 6457,
      "تعبئ": 6458,
      "أعداء": 6459,
      "ينقل": 6460,
      "كذب": 6461,
      "##ارين": 6462,
      "مؤرخ": 6463,
      "عشاء": 6464,
      "أقارب": 6465,
      "يتحقق": 6466,
      "ترحيب": 6467,
      "روحي": 6468,
      "ولاء": 6469,
      "باقى": 6470,
      "يستفيد": 6471,
      "بيري": 6472,
      "##مو": 6473,
      "مرصد": 6474,
      "تمنى": 6475,
      "تحفيز": 6476,
      "طقس": 6477,
      "ينفذ": 6478,
      "اطم": 6479,
      "إبراز": 6480,
      "أدخل": 6481,
      "تكتل": 6482,
      "حازم": 6483,
      "شعبان": 6484,
      "ناقل": 6485,
      "نتمنى": 6486,
      "ممد": 6487,
      "تتيح": 6488,
      "طه": 6489,
      "ملتزم": 6490,
      "أجد": 6491,
      "تتد": 6492,
      "##دران": 6493,
      "سوبر": 6494,
      "معقول": 6495,
      "معدني": 6496,
      "درب": 6497,
      "##وسوف": 6498,
      "مواسم": 6499,
      "كاميرا": 6500,
      "مآ": 6501,
      "مرضي": 6502,
      "مكي": 6503,
      "ماهر": 6504,
      "تلاعب": 6505,
      "يرتفع": 6506,
      "التحاق": 6507,
      "وفود": 6508,
      "كس": 6509,
      "##يرا": 6510,
      "مجري": 6511,
      "ركب": 6512,
      "أكراد": 6513,
      "##امكو": 6514,
      "مسمى": 6515,
      "مخلص": 6516,
      "##ونها": 6517,
      "##تفظ": 6518,
      "موان": 6519,
      "جواب": 6520,
      "كونغرس": 6521,
      "كثيف": 6522,
      "1995": 6523,
      "مسعود": 6524,
      "استقل": 6525,
      "أولياء": 6526,
      "##ربول": 6527,
      "94": 6528,
      "آون": 6529,
      "مقاي": 6530,
      "محظ": 6531,
      "مجر": 6532,
      "أند": 6533,
      "متصدر": 6534,
      "مكتوم": 6535,
      "ترد": 6536,
      "يتميز": 6537,
      "ذك": 6538,
      "حان": 6539,
      "سارك": 6540,
      "شاهين": 6541,
      "متحرك": 6542,
      "محتج": 6543,
      "حرفي": 6544,
      "معتدل": 6545,
      "92": 6546,
      "انج": 6547,
      "بادر": 6548,
      "آباء": 6549,
      "أسفل": 6550,
      "##عدى": 6551,
      "يقرب": 6552,
      "لاتيني": 6553,
      "رادي": 6554,
      "أدرك": 6555,
      "مغامر": 6556,
      "فاصل": 6557,
      "وتير": 6558,
      "##أنف": 6559,
      "أشعر": 6560,
      "تدرس": 6561,
      "مفتي": 6562,
      "هدايا": 6563,
      "ساق": 6564,
      "يسهم": 6565,
      "عملائ": 6566,
      "كوميدي": 6567,
      "موضع": 6568,
      "استئ": 6569,
      "تحلي": 6570,
      "مظهر": 6571,
      "نامي": 6572,
      "سهر": 6573,
      "##يت": 6574,
      "عمران": 6575,
      "##ينو": 6576,
      "##ترق": 6577,
      "بروك": 6578,
      "##مور": 6579,
      "ينجح": 6580,
      "##صق": 6581,
      "مالى": 6582,
      "وسطي": 6583,
      "سحر": 6584,
      "##مق": 6585,
      "89": 6586,
      "معتصم": 6587,
      "مفوض": 6588,
      "إظهار": 6589,
      "تيم": 6590,
      "سورى": 6591,
      "تراب": 6592,
      "عجمي": 6593,
      "مسكن": 6594,
      "يسرى": 6595,
      "أرجنتين": 6596,
      "عرقي": 6597,
      "جيران": 6598,
      "موانئ": 6599,
      "عرق": 6600,
      "كتيب": 6601,
      "##تلط": 6602,
      "غرق": 6603,
      "يرا": 6604,
      "صمود": 6605,
      "##ديف": 6606,
      "حقوقي": 6607,
      "##كسي": 6608,
      "عيان": 6609,
      "مشابه": 6610,
      "تخضع": 6611,
      "احتفاظ": 6612,
      "بغي": 6613,
      "يختار": 6614,
      "تنظر": 6615,
      "لكنني": 6616,
      "حظي": 6617,
      "تنظيف": 6618,
      "تراخيص": 6619,
      "1994": 6620,
      "ديب": 6621,
      "يصر": 6622,
      "محمل": 6623,
      "احتراف": 6624,
      "سبي": 6625,
      "محاصر": 6626,
      "##وتا": 6627,
      "##ثى": 6628,
      "صومال": 6629,
      "تتوقف": 6630,
      "ضمير": 6631,
      "مخزون": 6632,
      "##ازير": 6633,
      "اندماج": 6634,
      "أورد": 6635,
      "ديان": 6636,
      "أسوان": 6637,
      "أفق": 6638,
      "##طري": 6639,
      "عشي": 6640,
      "تطبيقي": 6641,
      "يسأل": 6642,
      "خف": 6643,
      "توصيل": 6644,
      "يحكم": 6645,
      "مزرع": 6646,
      "أمي": 6647,
      "جيب": 6648,
      "منفصل": 6649,
      "فجأ": 6650,
      "متوفر": 6651,
      "فيوم": 6652,
      "متداول": 6653,
      "مقد": 6654,
      "سنغ": 6655,
      "قاطع": 6656,
      "##اكا": 6657,
      "أري": 6658,
      "لوس": 6659,
      "أجمع": 6660,
      "متبقي": 6661,
      "منا": 6662,
      "مدي": 6663,
      "أعظم": 6664,
      "نعيم": 6665,
      "أرامكو": 6666,
      "بصم": 6667,
      "تتناول": 6668,
      "جلوس": 6669,
      "##ro": 6670,
      "حبوب": 6671,
      "ترأس": 6672,
      "ناب": 6673,
      "رقي": 6674,
      "بطرس": 6675,
      "حسيني": 6676,
      "بون": 6677,
      "استدعاء": 6678,
      "يدوي": 6679,
      "نتع": 6680,
      "منتهي": 6681,
      "اندلاع": 6682,
      "كولوم": 6683,
      "موهب": 6684,
      "1990": 6685,
      "أديان": 6686,
      "مكن": 6687,
      "ثبت": 6688,
      "وال": 6689,
      "محتاج": 6690,
      "بروف": 6691,
      "1967": 6692,
      "راس": 6693,
      "توليد": 6694,
      "منسوب": 6695,
      "متطوع": 6696,
      "عبدالل": 6697,
      "##مالى": 6698,
      "##كيز": 6699,
      "رحيم": 6700,
      "صاعد": 6701,
      "أخرج": 6702,
      "##هلي": 6703,
      "إفريقيا": 6704,
      "إمبراطوري": 6705,
      "##ائص": 6706,
      "تشعر": 6707,
      "يقرر": 6708,
      "اغتص": 6709,
      "##le": 6710,
      "احتجاز": 6711,
      "أسري": 6712,
      "##مت": 6713,
      "عبده": 6714,
      "هتاف": 6715,
      "مشهور": 6716,
      "##مرت": 6717,
      "معرفي": 6718,
      "##غم": 6719,
      "##سح": 6720,
      "لى": 6721,
      "##طنبول": 6722,
      "##صاب": 6723,
      "متجدد": 6724,
      "لهج": 6725,
      "فرار": 6726,
      "شفاء": 6727,
      "حقيب": 6728,
      "يقتل": 6729,
      "سكرتير": 6730,
      "تقارب": 6731,
      "معادن": 6732,
      "سافر": 6733,
      "شل": 6734,
      "تحريض": 6735,
      "##عان": 6736,
      "أوز": 6737,
      "متفرق": 6738,
      "متفجر": 6739,
      "ريفي": 6740,
      "إبداعي": 6741,
      "مشار": 6742,
      "منيا": 6743,
      "تحل": 6744,
      "##اتور": 6745,
      "هجومي": 6746,
      "عاطف": 6747,
      "تعدي": 6748,
      "تسامح": 6749,
      "جمركي": 6750,
      "بحثي": 6751,
      "تسمى": 6752,
      "##تيك": 6753,
      "##اريا": 6754,
      "احتفالي": 6755,
      "مناقص": 6756,
      "معتاد": 6757,
      "رشي": 6758,
      "فم": 6759,
      "متعامل": 6760,
      "فوزي": 6761,
      "تأدي": 6762,
      "انفصال": 6763,
      "##اميذ": 6764,
      "ليلى": 6765,
      "مفصل": 6766,
      "مذيع": 6767,
      "ترسيخ": 6768,
      "جدران": 6769,
      "تلاميذ": 6770,
      "إمداد": 6771,
      "درامي": 6772,
      "سمك": 6773,
      "##ويلي": 6774,
      "تبذل": 6775,
      "سادات": 6776,
      "تحريك": 6777,
      "عظمى": 6778,
      "جذور": 6779,
      "استيلاء": 6780,
      "مشاور": 6781,
      "خشب": 6782,
      "##دعي": 6783,
      "شغب": 6784,
      "تناقض": 6785,
      "شاكر": 6786,
      "زبائن": 6787,
      "أمنى": 6788,
      "سبور": 6789,
      "اوباما": 6790,
      "لاس": 6791,
      "ابتسام": 6792,
      "سبحان": 6793,
      "مرتقب": 6794,
      "تكي": 6795,
      "توطين": 6796,
      "قلي": 6797,
      "##مئن": 6798,
      "تجميل": 6799,
      "خزين": 6800,
      "تسهم": 6801,
      "وائل": 6802,
      "دوي": 6803,
      "تنشيط": 6804,
      "عاصف": 6805,
      "##صاف": 6806,
      "إت": 6807,
      "إنماء": 6808,
      "ذكري": 6809,
      "مسن": 6810,
      "حليف": 6811,
      "هال": 6812,
      "أجرا": 6813,
      "مغني": 6814,
      "معز": 6815,
      "إدارى": 6816,
      "سنغاف": 6817,
      "ميثاق": 6818,
      "نسيج": 6819,
      "##قطع": 6820,
      "رافق": 6821,
      "قبلي": 6822,
      "ودائع": 6823,
      "إسطنبول": 6824,
      "يتمثل": 6825,
      "93": 6826,
      "قافل": 6827,
      "ارتياح": 6828,
      "وسام": 6829,
      "عبدالمح": 6830,
      "عبدالح": 6831,
      "##طاليا": 6832,
      "كوارث": 6833,
      "مانع": 6834,
      "انتحار": 6835,
      "متخ": 6836,
      "فضي": 6837,
      "نجار": 6838,
      "موقوف": 6839,
      "توع": 6840,
      "تفري": 6841,
      "عبدالمحسن": 6842,
      "مطبوع": 6843,
      "تعثر": 6844,
      "يتب": 6845,
      "قضى": 6846,
      "تنشر": 6847,
      "##جا": 6848,
      "معاني": 6849,
      "مكالم": 6850,
      "علاجي": 6851,
      "تحميل": 6852,
      "فخام": 6853,
      "لوم": 6854,
      "اسب": 6855,
      "ماروني": 6856,
      "شوي": 6857,
      "نقوم": 6858,
      "##سخ": 6859,
      "معمر": 6860,
      "تقليد": 6861,
      "ينطلق": 6862,
      "يشت": 6863,
      "خارط": 6864,
      "اختراع": 6865,
      "##حف": 6866,
      "سواحل": 6867,
      "إيلي": 6868,
      "يستعد": 6869,
      "مجهود": 6870,
      "معماري": 6871,
      "يعقوب": 6872,
      "أتراك": 6873,
      "يتعامل": 6874,
      "احداث": 6875,
      "باول": 6876,
      "ذرو": 6877,
      "##هاي": 6878,
      "تأسس": 6879,
      "##انس": 6880,
      "عظام": 6881,
      "صارم": 6882,
      "برقي": 6883,
      "تسوق": 6884,
      "##ضار": 6885,
      "كرسي": 6886,
      "تفت": 6887,
      "أوكراني": 6888,
      "أوبك": 6889,
      "يسقط": 6890,
      "أسرار": 6891,
      "نشط": 6892,
      "700": 6893,
      "نتج": 6894,
      "##لط": 6895,
      "تجميع": 6896,
      "يتخ": 6897,
      "##شيد": 6898,
      "أسير": 6899,
      "فيليب": 6900,
      "هاني": 6901,
      "محرم": 6902,
      "رضي": 6903,
      "مكسيك": 6904,
      "عازمي": 6905,
      "عروب": 6906,
      "خت": 6907,
      "جهل": 6908,
      "استخراج": 6909,
      "وكل": 6910,
      "تتابع": 6911,
      "جوز": 6912,
      "فحوص": 6913,
      "مدعي": 6914,
      "أسطول": 6915,
      "190": 6916,
      "ينس": 6917,
      "عبداللطيف": 6918,
      "باشر": 6919,
      "يتكون": 6920,
      "##ائك": 6921,
      "جوهري": 6922,
      "باشا": 6923,
      "إيقاع": 6924,
      "مزمن": 6925,
      "قذائف": 6926,
      "##la": 6927,
      "منوه": 6928,
      "صفير": 6929,
      "وضعي": 6930,
      "باي": 6931,
      "يتوجه": 6932,
      "##وفا": 6933,
      "منهجي": 6934,
      "تشويه": 6935,
      "جاب": 6936,
      "##فو": 6937,
      "تشاور": 6938,
      "علني": 6939,
      "بلجيكي": 6940,
      "##دع": 6941,
      "##صح": 6942,
      "متواضع": 6943,
      "أزياء": 6944,
      "إسراع": 6945,
      "تطهير": 6946,
      "حراك": 6947,
      "##سنال": 6948,
      "يشرف": 6949,
      "حقول": 6950,
      "مرء": 6951,
      "تموين": 6952,
      "##شة": 6953,
      "محفوظ": 6954,
      "##هرام": 6955,
      "تذهب": 6956,
      "##انباء": 6957,
      "الع": 6958,
      "الانباء": 6959,
      "واصف": 6960,
      "يمتد": 6961,
      "عاشور": 6962,
      "تسيير": 6963,
      "مدعو": 6964,
      "رايس": 6965,
      "تثقي": 6966,
      "تهاني": 6967,
      "أعر": 6968,
      "تضيف": 6969,
      "نهائى": 6970,
      "حجاب": 6971,
      "يستهدف": 6972,
      "أعط": 6973,
      "بائع": 6974,
      "حداث": 6975,
      "يفهم": 6976,
      "استشهاد": 6977,
      "اختطاف": 6978,
      "أستطيع": 6979,
      "ختامي": 6980,
      "مزر": 6981,
      "ثوابت": 6982,
      "شبيب": 6983,
      "##ترب": 6984,
      "أصدقائ": 6985,
      "##ابيب": 6986,
      "سرعان": 6987,
      "باه": 6988,
      "يمنى": 6989,
      "إكس": 6990,
      "صاروخي": 6991,
      "يبر": 6992,
      "صحر": 6993,
      "مروحي": 6994,
      "عابر": 6995,
      "ممنوع": 6996,
      "جورجي": 6997,
      "انك": 6998,
      "تسرب": 6999,
      "##احم": 7000,
      "غري": 7001,
      "##شك": 7002,
      "أقصر": 7003,
      "عنق": 7004,
      "##فار": 7005,
      "أنجز": 7006,
      "احمر": 7007,
      "أيها": 7008,
      "##جلترا": 7009,
      "رائح": 7010,
      "معارف": 7011,
      "احتياط": 7012,
      "تآ": 7013,
      "روبرت": 7014,
      "عولم": 7015,
      "كرك": 7016,
      "ماجستير": 7017,
      "تشديد": 7018,
      "##كوب": 7019,
      "مسر": 7020,
      "##شان": 7021,
      "أطول": 7022,
      "استغل": 7023,
      "##يلد": 7024,
      "حقب": 7025,
      "كنائس": 7026,
      "سيدي": 7027,
      "تسلل": 7028,
      "##صرف": 7029,
      "انفر": 7030,
      "إميل": 7031,
      "زو": 7032,
      "مدمر": 7033,
      "ذهني": 7034,
      "عزاء": 7035,
      "نوايا": 7036,
      "##ليون": 7037,
      "تزداد": 7038,
      "يلقي": 7039,
      "أضواء": 7040,
      "##59": 7041,
      "##الع": 7042,
      "##ادعى": 7043,
      "ذراع": 7044,
      "خالص": 7045,
      "كيماوي": 7046,
      "نسمع": 7047,
      "اميركا": 7048,
      "تستحق": 7049,
      "أزرق": 7050,
      "ينتقل": 7051,
      "يكر": 7052,
      "مزود": 7053,
      "##وعب": 7054,
      "أمناء": 7055,
      "بارك": 7056,
      "يسمع": 7057,
      "غول": 7058,
      "حاس": 7059,
      "مواز": 7060,
      "##تتم": 7061,
      "يلزم": 7062,
      "مأسا": 7063,
      "نزاه": 7064,
      "اندلع": 7065,
      "تعزز": 7066,
      "شمسي": 7067,
      "ستر": 7068,
      "تذكاري": 7069,
      "نصي": 7070,
      "تفصيل": 7071,
      "مقول": 7072,
      "يؤدى": 7073,
      "بيتر": 7074,
      "صحى": 7075,
      "شقق": 7076,
      "08": 7077,
      "نوب": 7078,
      "فتوى": 7079,
      "معادي": 7080,
      "شعل": 7081,
      "إتاح": 7082,
      "توعوي": 7083,
      "يسيطر": 7084,
      "يوجه": 7085,
      "رونالدو": 7086,
      "نيجيريا": 7087,
      "تبن": 7088,
      "تتجه": 7089,
      "شهاب": 7090,
      "زيدان": 7091,
      "ألمان": 7092,
      "جذري": 7093,
      "كالي": 7094,
      "استيطان": 7095,
      "أحرار": 7096,
      "عاطفي": 7097,
      "تدشين": 7098,
      "##فان": 7099,
      "حيز": 7100,
      "1992": 7101,
      "فائق": 7102,
      "قف": 7103,
      "ترحيل": 7104,
      "بئ": 7105,
      "رقابي": 7106,
      "إثنين": 7107,
      "ناقد": 7108,
      "روابط": 7109,
      "عزز": 7110,
      "رود": 7111,
      "##لو": 7112,
      "إهد": 7113,
      "##اتق": 7114,
      "هنالك": 7115,
      "نفي": 7116,
      "##رز": 7117,
      "غسان": 7118,
      "موسع": 7119,
      "خشي": 7120,
      "##اطؤ": 7121,
      "ابر": 7122,
      "ريد": 7123,
      "او": 7124,
      "يتج": 7125,
      "خصائص": 7126,
      "كومبس": 7127,
      "محلى": 7128,
      "سرد": 7129,
      "معاون": 7130,
      "##وفيتش": 7131,
      "##تاحي": 7132,
      "بلال": 7133,
      "رومان": 7134,
      "متفوق": 7135,
      "##هش": 7136,
      "حصص": 7137,
      "##كات": 7138,
      "انطب": 7139,
      "09": 7140,
      "أضحى": 7141,
      "تنف": 7142,
      "كب": 7143,
      "تار": 7144,
      "##صاء": 7145,
      "تجاوب": 7146,
      "مساعي": 7147,
      "اسك": 7148,
      "حراري": 7149,
      "أهرام": 7150,
      "جليل": 7151,
      "تحتل": 7152,
      "تزوج": 7153,
      "طلي": 7154,
      "مستلزم": 7155,
      "يهتم": 7156,
      "راقي": 7157,
      "اثار": 7158,
      "ماليزيا": 7159,
      "ايطاليا": 7160,
      "مصل": 7161,
      "##دراج": 7162,
      "ممتد": 7163,
      "برتغال": 7164,
      "صبح": 7165,
      "##زو": 7166,
      "لاذ": 7167,
      "فاش": 7168,
      "ثمار": 7169,
      "نازح": 7170,
      "أهد": 7171,
      "منظور": 7172,
      "بنيامين": 7173,
      "طمأن": 7174,
      "اغتصاب": 7175,
      "ماكين": 7176,
      "مقاييس": 7177,
      "حنان": 7178,
      "مكافآت": 7179,
      "تجدد": 7180,
      "رأسمال": 7181,
      "##اديم": 7182,
      "سلطن": 7183,
      "نسعى": 7184,
      "عصور": 7185,
      "##خن": 7186,
      "خاسر": 7187,
      "أملاك": 7188,
      "نخيل": 7189,
      "رئيسى": 7190,
      "##لان": 7191,
      "##تنع": 7192,
      "زوجي": 7193,
      "يقتصر": 7194,
      "##هبي": 7195,
      "مولود": 7196,
      "مراسم": 7197,
      "قاس": 7198,
      "إفاد": 7199,
      "أولمبياد": 7200,
      "فائض": 7201,
      "تترك": 7202,
      "تلميذ": 7203,
      "أوجه": 7204,
      "جنين": 7205,
      "كلاسي": 7206,
      "تدقيق": 7207,
      "تدعيم": 7208,
      "غش": 7209,
      "غطاء": 7210,
      "##كريم": 7211,
      "ضحك": 7212,
      "تنب": 7213,
      "الم": 7214,
      "قصوى": 7215,
      "فنز": 7216,
      "ممدوح": 7217,
      "مجزر": 7218,
      "مستودع": 7219,
      "نعلم": 7220,
      "##re": 7221,
      "##طائ": 7222,
      "ابطال": 7223,
      "مرجع": 7224,
      "مزاد": 7225,
      "تشر": 7226,
      "جوع": 7227,
      "##ئيل": 7228,
      "أنابيب": 7229,
      "يركز": 7230,
      "##ظام": 7231,
      "طفيف": 7232,
      "رشيدي": 7233,
      "تفاقم": 7234,
      "نقي": 7235,
      "تفهم": 7236,
      "إسهام": 7237,
      "مشرق": 7238,
      "مستن": 7239,
      "يزداد": 7240,
      "تخريب": 7241,
      "سكين": 7242,
      "ناسف": 7243,
      "بحار": 7244,
      "عداء": 7245,
      "البرادعى": 7246,
      "تعتزم": 7247,
      "كاس": 7248,
      "أعباء": 7249,
      "مئوي": 7250,
      "طعم": 7251,
      "##فد": 7252,
      "تتوقع": 7253,
      "##أم": 7254,
      "لال": 7255,
      "يحول": 7256,
      "غنى": 7257,
      "مشاجر": 7258,
      "نقاد": 7259,
      "توضح": 7260,
      "معاقب": 7261,
      "انتر": 7262,
      "##وريا": 7263,
      "مدفوع": 7264,
      "ممرض": 7265,
      "الأور": 7266,
      "لادن": 7267,
      "طابق": 7268,
      "عبث": 7269,
      "افتتاحي": 7270,
      "خصخص": 7271,
      "جدة": 7272,
      "1991": 7273,
      "أخبر": 7274,
      "مقاص": 7275,
      "ينتمي": 7276,
      "سرير": 7277,
      "تثير": 7278,
      "متبع": 7279,
      "خنازير": 7280,
      "يسبق": 7281,
      "##MT": 7282,
      "عاتق": 7283,
      "حليب": 7284,
      "خيب": 7285,
      "ديك": 7286,
      "ازداد": 7287,
      "##دمان": 7288,
      "##أر": 7289,
      "يفقد": 7290,
      "يتسبب": 7291,
      "متدرب": 7292,
      "##ماس": 7293,
      "حاز": 7294,
      "اختصار": 7295,
      "يربط": 7296,
      "كاز": 7297,
      "##هوب": 7298,
      "تتحمل": 7299,
      "سانت": 7300,
      "##ونيخ": 7301,
      "عبدالكريم": 7302,
      "يغيب": 7303,
      "مخاطب": 7304,
      "أنطوان": 7305,
      "##لمس": 7306,
      "محكوم": 7307,
      "أيس": 7308,
      "أجند": 7309,
      "وقائي": 7310,
      "منصر": 7311,
      "تسيطر": 7312,
      "تاجر": 7313,
      "ابيض": 7314,
      "قطب": 7315,
      "يتفق": 7316,
      "خالدي": 7317,
      "محد": 7318,
      "جانبي": 7319,
      "كوت": 7320,
      "##زئ": 7321,
      "ملحم": 7322,
      "##كيك": 7323,
      "مهجر": 7324,
      "الأوروبى": 7325,
      "نحتاج": 7326,
      "انخر": 7327,
      "يبذل": 7328,
      "بسط": 7329,
      "بئر": 7330,
      "ميونيخ": 7331,
      "ضياع": 7332,
      "محمي": 7333,
      "سمن": 7334,
      "اختلف": 7335,
      "أندر": 7336,
      "تذاكر": 7337,
      "##ليا": 7338,
      "باطل": 7339,
      "يسع": 7340,
      "مفضل": 7341,
      "تجدر": 7342,
      "تستعد": 7343,
      "هدى": 7344,
      "جهر": 7345,
      "ليفربول": 7346,
      "##ورط": 7347,
      "حلو": 7348,
      "كين": 7349,
      "##اقتص": 7350,
      "##كيو": 7351,
      "راكب": 7352,
      "رمض": 7353,
      "جريح": 7354,
      "قدوم": 7355,
      "اجتهاد": 7356,
      "سلال": 7357,
      "مدون": 7358,
      "##المى": 7359,
      "رؤى": 7360,
      "فضيح": 7361,
      "أعي": 7362,
      "##غن": 7363,
      "تيسير": 7364,
      "أنه": 7365,
      "موريت": 7366,
      "العالمى": 7367,
      "طبيعى": 7368,
      "أليس": 7369,
      "##ىء": 7370,
      "مغترب": 7371,
      "أصر": 7372,
      "لجأ": 7373,
      "حاوي": 7374,
      "يجتمع": 7375,
      "فائت": 7376,
      "اختل": 7377,
      "شروق": 7378,
      "يسكن": 7379,
      "براد": 7380,
      "تقاطع": 7381,
      "انتظام": 7382,
      "دماغ": 7383,
      "مازن": 7384,
      "رخ": 7385,
      "##فوف": 7386,
      "خاضع": 7387,
      "متفق": 7388,
      "ساركوزي": 7389,
      "منتجع": 7390,
      "روز": 7391,
      "دونالد": 7392,
      "يفتتح": 7393,
      "GMT": 7394,
      "نصح": 7395,
      "مشروب": 7396,
      "ظو": 7397,
      "نبطي": 7398,
      "كاظم": 7399,
      "##ريني": 7400,
      "##قا": 7401,
      "تؤمن": 7402,
      "ناشد": 7403,
      "قنديل": 7404,
      "يقرأ": 7405,
      "مطاف": 7406,
      "إنمائي": 7407,
      "خرق": 7408,
      "##سيل": 7409,
      "تبعد": 7410,
      "اشر": 7411,
      "رجوع": 7412,
      "اسط": 7413,
      "هيب": 7414,
      "داود": 7415,
      "140": 7416,
      "تضاف": 7417,
      "إيداع": 7418,
      "أمتار": 7419,
      "بروتوكول": 7420,
      "هذين": 7421,
      "عالق": 7422,
      "أحاديث": 7423,
      "أدلى": 7424,
      "إهان": 7425,
      "مقبر": 7426,
      "دخيل": 7427,
      "زعام": 7428,
      "شكوك": 7429,
      "تسجل": 7430,
      "قاطن": 7431,
      "##جاني": 7432,
      "إلهام": 7433,
      "وين": 7434,
      "##اقتصادى": 7435,
      "عرقل": 7436,
      "يقين": 7437,
      "الاقتصادى": 7438,
      "مزدوج": 7439,
      "يجرى": 7440,
      "##أجر": 7441,
      "عقيل": 7442,
      "أيتام": 7443,
      "إدراج": 7444,
      "غموض": 7445,
      "منفرد": 7446,
      "منسوبي": 7447,
      "تبرير": 7448,
      "منعم": 7449,
      "ميزان": 7450,
      "تعتقد": 7451,
      "فتاح": 7452,
      "##el": 7453,
      "جسور": 7454,
      "فاشل": 7455,
      "زكري": 7456,
      "مفع": 7457,
      "تجزئ": 7458,
      "جيمس": 7459,
      "ترتبط": 7460,
      "أنما": 7461,
      "مملوك": 7462,
      "تناقش": 7463,
      "##10": 7464,
      "عارف": 7465,
      "##60": 7466,
      "إبريل": 7467,
      "استقلالي": 7468,
      "##دن": 7469,
      "##اتى": 7470,
      "إخو": 7471,
      "مذهبي": 7472,
      "ينبع": 7473,
      "متوازن": 7474,
      "مرفق": 7475,
      "##كلي": 7476,
      "انض": 7477,
      "ثغر": 7478,
      "كفاي": 7479,
      "محي": 7480,
      "مناظر": 7481,
      "خدمي": 7482,
      "قهو": 7483,
      "ربحي": 7484,
      "مطابق": 7485,
      "مطران": 7486,
      "منافذ": 7487,
      "ثبات": 7488,
      "تعلق": 7489,
      "##عج": 7490,
      "منق": 7491,
      "انتقام": 7492,
      "##ئاب": 7493,
      "مشتري": 7494,
      "مسبب": 7495,
      "##بدل": 7496,
      "فلب": 7497,
      "معلوماتي": 7498,
      "نوري": 7499,
      "أعصاب": 7500,
      "##كاك": 7501,
      "مكعب": 7502,
      "خيان": 7503,
      "##جيج": 7504,
      "حلفاء": 7505,
      "كراهي": 7506,
      "##صاد": 7507,
      "ناشر": 7508,
      "صوفي": 7509,
      "ديار": 7510,
      "مفتاح": 7511,
      "غائب": 7512,
      "انعدام": 7513,
      "أخطار": 7514,
      "يوافق": 7515,
      "مسقط": 7516,
      "متفرج": 7517,
      "##سو": 7518,
      "ينتم": 7519,
      "تراكم": 7520,
      "##ثوذ": 7521,
      "##ئنان": 7522,
      "دهش": 7523,
      "رمضاني": 7524,
      "أعل": 7525,
      "##اتين": 7526,
      "اخوان": 7527,
      "مجان": 7528,
      "أمد": 7529,
      "حوافز": 7530,
      "##واذ": 7531,
      "أعياد": 7532,
      "##احق": 7533,
      "##ed": 7534,
      "فادي": 7535,
      "وكلاء": 7536,
      "فيسب": 7537,
      "يبت": 7538,
      "أنلا": 7539,
      "1993": 7540,
      "يرتبط": 7541,
      "دعي": 7542,
      "جسدي": 7543,
      "تصب": 7544,
      "جولان": 7545,
      "سفراء": 7546,
      "فتوح": 7547,
      "يتردد": 7548,
      "رفاق": 7549,
      "متزوج": 7550,
      "أنج": 7551,
      "##نين": 7552,
      "يغير": 7553,
      "إطاح": 7554,
      "مناع": 7555,
      "سعى": 7556,
      "أوان": 7557,
      "دال": 7558,
      "محتوى": 7559,
      "##تقي": 7560,
      "رعا": 7561,
      "بوست": 7562,
      "أطي": 7563,
      "شمع": 7564,
      "طاع": 7565,
      "براك": 7566,
      "بؤ": 7567,
      "توحد": 7568,
      "إجمالى": 7569,
      "معي": 7570,
      "مشا": 7571,
      "##et": 7572,
      "الاف": 7573,
      "تمارين": 7574,
      "انتخب": 7575,
      "ينعكس": 7576,
      "ننتظر": 7577,
      "منصرم": 7578,
      "حبي": 7579,
      "استحواذ": 7580,
      "##زيم": 7581,
      "صق": 7582,
      "عباسي": 7583,
      "مشب": 7584,
      "بترولي": 7585,
      "صباحي": 7586,
      "هاش": 7587,
      "أعلم": 7588,
      "تهتم": 7589,
      "لفظ": 7590,
      "شرم": 7591,
      "ميركل": 7592,
      "متاجر": 7593,
      "نبوي": 7594,
      "استهلاكي": 7595,
      "تطبق": 7596,
      "##اتر": 7597,
      "متجه": 7598,
      "حمدى": 7599,
      "صحب": 7600,
      "منتظم": 7601,
      "##ing": 7602,
      "مبتكر": 7603,
      "خضع": 7604,
      "ميكر": 7605,
      "أندري": 7606,
      "##ورا": 7607,
      "مؤدي": 7608,
      "احتواء": 7609,
      "قداس": 7610,
      "فجو": 7611,
      "وجوب": 7612,
      "##انياهو": 7613,
      "مقي": 7614,
      "سمر": 7615,
      "كردستان": 7616,
      "صنف": 7617,
      "بكال": 7618,
      "ركود": 7619,
      "حياز": 7620,
      "##خخ": 7621,
      "أذن": 7622,
      "وسيط": 7623,
      "بعلبك": 7624,
      "يعت": 7625,
      "تشار": 7626,
      "ريت": 7627,
      "عدوى": 7628,
      "جسيم": 7629,
      "فيتن": 7630,
      "إجرامي": 7631,
      "##صين": 7632,
      "ذكاء": 7633,
      "جهوي": 7634,
      "##ou": 7635,
      "1500": 7636,
      "ليب": 7637,
      "##وزع": 7638,
      "يصب": 7639,
      "متوافر": 7640,
      "##غول": 7641,
      "##80": 7642,
      "تدل": 7643,
      "استشهد": 7644,
      "ضريبي": 7645,
      "##مائ": 7646,
      "رباط": 7647,
      "مرجح": 7648,
      "كادر": 7649,
      "##ئم": 7650,
      "اطمئنان": 7651,
      "حرائق": 7652,
      "نفع": 7653,
      "ريح": 7654,
      "خليفة": 7655,
      "فارغ": 7656,
      "مفخخ": 7657,
      "أعلام": 7658,
      "##سلم": 7659,
      "توريد": 7660,
      "يقصد": 7661,
      "##قراض": 7662,
      "مضارب": 7663,
      "رما": 7664,
      "هدن": 7665,
      "مطارد": 7666,
      "مرون": 7667,
      "##بوط": 7668,
      "لك": 7669,
      "ترغب": 7670,
      "يعترف": 7671,
      "رعب": 7672,
      "بلاستي": 7673,
      "عرضي": 7674,
      "مصن": 7675,
      "يوقع": 7676,
      "تدير": 7677,
      "ناجي": 7678,
      "تتف": 7679,
      "##زف": 7680,
      "هانى": 7681,
      "كوني": 7682,
      "##انيوم": 7683,
      "كيم": 7684,
      "سوه": 7685,
      "يأس": 7686,
      "جنح": 7687,
      "حاتم": 7688,
      "هبط": 7689,
      "يشر": 7690,
      "محن": 7691,
      "اتس": 7692,
      "ثقل": 7693,
      "انطباع": 7694,
      "غبار": 7695,
      "مزي": 7696,
      "فيسبوك": 7697,
      "محظور": 7698,
      "130": 7699,
      "تأتى": 7700,
      "##غيلي": 7701,
      "أرجح": 7702,
      "رافع": 7703,
      "مبار": 7704,
      "آمل": 7705,
      "رجاء": 7706,
      "تاك": 7707,
      "انفاق": 7708,
      "ينشر": 7709,
      "بطن": 7710,
      "هوا": 7711,
      "غامض": 7712,
      "تضرر": 7713,
      "زاهر": 7714,
      "##دياد": 7715,
      "عشق": 7716,
      "هني": 7717,
      "##يسكو": 7718,
      "معتقد": 7719,
      "تمتع": 7720,
      "صومالي": 7721,
      "متأثر": 7722,
      "يتغير": 7723,
      "نتاج": 7724,
      "فقي": 7725,
      "فلي": 7726,
      "عصري": 7727,
      "وحشي": 7728,
      "نزيه": 7729,
      "##فاد": 7730,
      "قتالي": 7731,
      "تشبه": 7732,
      "تشيكي": 7733,
      "تقدمي": 7734,
      "##لاوي": 7735,
      "استفسار": 7736,
      "صفا": 7737,
      "##اصم": 7738,
      "نتانياهو": 7739,
      "صخ": 7740,
      "تعم": 7741,
      "تتج": 7742,
      "موهوب": 7743,
      "أبري": 7744,
      "يحرص": 7745,
      "أصابع": 7746,
      "مفاعل": 7747,
      "برونزي": 7748,
      "تباين": 7749,
      "كرواتي": 7750,
      "ألك": 7751,
      "تسري": 7752,
      "صلح": 7753,
      "أنشأ": 7754,
      "جرم": 7755,
      "##بيان": 7756,
      "##اغي": 7757,
      "إكمال": 7758,
      "##جيز": 7759,
      "فرسان": 7760,
      "اللا": 7761,
      "مكتسب": 7762,
      "عجمان": 7763,
      "شطر": 7764,
      "ضائع": 7765,
      "طوكيو": 7766,
      "منار": 7767,
      "هون": 7768,
      "رين": 7769,
      "وراثي": 7770,
      "##ماش": 7771,
      "زكي": 7772,
      "احتفل": 7773,
      "أرم": 7774,
      "صابر": 7775,
      "تشرف": 7776,
      "وهاب": 7777,
      "ازدياد": 7778,
      "سوز": 7779,
      "تعطل": 7780,
      "غزل": 7781,
      "##جال": 7782,
      "شواطئ": 7783,
      "شوق": 7784,
      "##ازى": 7785,
      "تفرق": 7786,
      "جهراء": 7787,
      "مدفعي": 7788,
      "زكا": 7789,
      "أخت": 7790,
      "مضاف": 7791,
      "##90": 7792,
      "تطوعي": 7793,
      "تتغير": 7794,
      "نمسا": 7795,
      "شحات": 7796,
      "نقض": 7797,
      "بلير": 7798,
      "تباع": 7799,
      "أسعد": 7800,
      "خلص": 7801,
      "عمود": 7802,
      "تشغيلي": 7803,
      "##تباع": 7804,
      "مسود": 7805,
      "أزواج": 7806,
      "##اغو": 7807,
      "تخوف": 7808,
      "ناهي": 7809,
      "قنصلي": 7810,
      "ميكاني": 7811,
      "اقترب": 7812,
      "خرافي": 7813,
      "جرع": 7814,
      "موالي": 7815,
      "خلط": 7816,
      "أخي": 7817,
      "دخان": 7818,
      "مستعمر": 7819,
      "##امو": 7820,
      "##نس": 7821,
      "عجوز": 7822,
      "عابدين": 7823,
      "##قفال": 7824,
      "مصاحب": 7825,
      "داو": 7826,
      "استياء": 7827,
      "معمل": 7828,
      "عدواني": 7829,
      "اعتاد": 7830,
      "##ضحك": 7831,
      "##ائقي": 7832,
      "ملزم": 7833,
      "خطي": 7834,
      "##يريا": 7835,
      "راجع": 7836,
      "##اضب": 7837,
      "تجسس": 7838,
      "شلل": 7839,
      "أبها": 7840,
      "##تامين": 7841,
      "##اهري": 7842,
      "فري": 7843,
      "تأجير": 7844,
      "عنان": 7845,
      "إندونيسيا": 7846,
      "ضياف": 7847,
      "أدان": 7848,
      "أشبه": 7849,
      "نقدم": 7850,
      "قباني": 7851,
      "إخلاص": 7852,
      "زينب": 7853,
      "فلاديم": 7854,
      "شعبى": 7855,
      "تبنى": 7856,
      "أصعب": 7857,
      "مزور": 7858,
      "بقايا": 7859,
      "تخصصي": 7860,
      "##نتوس": 7861,
      "تكفل": 7862,
      "سجين": 7863,
      "هنري": 7864,
      "أبرياء": 7865,
      "تعنى": 7866,
      "بتروكي": 7867,
      "##22": 7868,
      "##st": 7869,
      "كاميرون": 7870,
      "تتعامل": 7871,
      "بروكسل": 7872,
      "##طح": 7873,
      "##نيش": 7874,
      "إعفاء": 7875,
      "تفكيك": 7876,
      "امتناع": 7877,
      "أيسر": 7878,
      "واثق": 7879,
      "فلاديمير": 7880,
      "كح": 7881,
      "ذبح": 7882,
      "تمني": 7883,
      "ورود": 7884,
      "غاضب": 7885,
      "قديس": 7886,
      "##عدادي": 7887,
      "سنغافور": 7888,
      "##هال": 7889,
      "تصدى": 7890,
      "يصيب": 7891,
      "غنيم": 7892,
      "بى": 7893,
      "نواحي": 7894,
      "حشر": 7895,
      "##است": 7896,
      "استعمار": 7897,
      "معاين": 7898,
      "##اود": 7899,
      "تتهم": 7900,
      "كاثوليكي": 7901,
      "تتقدم": 7902,
      "تستع": 7903,
      "ازدحام": 7904,
      "يتطلع": 7905,
      "زكريا": 7906,
      "##كول": 7907,
      "##خلص": 7908,
      "مثيل": 7909,
      "دوافع": 7910,
      "يتناسب": 7911,
      "تعازي": 7912,
      "بص": 7913,
      "إسترليني": 7914,
      "أتم": 7915,
      "لغوي": 7916,
      "يدع": 7917,
      "180": 7918,
      "تقضي": 7919,
      "بطي": 7920,
      "كريستيان": 7921,
      "تصف": 7922,
      "حليم": 7923,
      "بكت": 7924,
      "تعايش": 7925,
      "##اتا": 7926,
      "تشييد": 7927,
      "تجريبي": 7928,
      "منتدب": 7929,
      "ترفيه": 7930,
      "أتل": 7931,
      "##شيل": 7932,
      "مقطع": 7933,
      "وهمي": 7934,
      "##ويني": 7935,
      "محتوي": 7936,
      "##ديان": 7937,
      "##يفر": 7938,
      "نتحدث": 7939,
      "ناتو": 7940,
      "تحسب": 7941,
      "بقع": 7942,
      "صيام": 7943,
      "خضوع": 7944,
      "تصديق": 7945,
      "##ol": 7946,
      "إدلاء": 7947,
      "متورط": 7948,
      "##ايق": 7949,
      "يورانيوم": 7950,
      "شاغ": 7951,
      "##يه": 7952,
      "تقصير": 7953,
      "اتجار": 7954,
      "يطبق": 7955,
      "كنيست": 7956,
      "يموت": 7957,
      "إفل": 7958,
      "##كوف": 7959,
      "كاليفور": 7960,
      "حصري": 7961,
      "نعتقد": 7962,
      "التق": 7963,
      "مذهب": 7964,
      "تنويع": 7965,
      "يغلق": 7966,
      "##وهاب": 7967,
      "مشيد": 7968,
      "احترافي": 7969,
      "غلق": 7970,
      "محتجز": 7971,
      "وثائقي": 7972,
      "تحصين": 7973,
      "ظهير": 7974,
      "##نام": 7975,
      "أمكن": 7976,
      "خيل": 7977,
      "أعين": 7978,
      "أجبر": 7979,
      "لأى": 7980,
      "مرتكب": 7981,
      "##ليبي": 7982,
      "##جور": 7983,
      "سوس": 7984,
      "ثري": 7985,
      "##امع": 7986,
      "عبدالوهاب": 7987,
      "مفارق": 7988,
      "جاهزي": 7989,
      "سويف": 7990,
      "عدس": 7991,
      "##شاب": 7992,
      "110": 7993,
      "حزام": 7994,
      "فوات": 7995,
      "سلك": 7996,
      "عيار": 7997,
      "مردود": 7998,
      "كاليفورنيا": 7999,
      "أرف": 8000,
      "توب": 8001,
      "أذكر": 8002,
      "مترجم": 8003,
      "ديمقراطى": 8004,
      "##اى": 8005,
      "##هق": 8006,
      "ألقاب": 8007,
      "أتى": 8008,
      "عبري": 8009,
      "##il": 8010,
      "يتراوح": 8011,
      "ريتشار": 8012,
      "دستورى": 8013,
      "##زيزي": 8014,
      "قرون": 8015,
      "يأت": 8016,
      "كلاسيكي": 8017,
      "احتكار": 8018,
      "لص": 8019,
      "حافز": 8020,
      "يضرب": 8021,
      "عائشة": 8022,
      "عاجز": 8023,
      "عالى": 8024,
      "متنقل": 8025,
      "فتحى": 8026,
      "يلجأ": 8027,
      "محترم": 8028,
      "##وريوس": 8029,
      "إيجاب": 8030,
      "تغيب": 8031,
      "سئل": 8032,
      "بولندا": 8033,
      "دري": 8034,
      "##باح": 8035,
      "توماس": 8036,
      "فقه": 8037,
      "كيري": 8038,
      "أنتج": 8039,
      "سعودى": 8040,
      "##كف": 8041,
      "إشاع": 8042,
      "ديبلوم": 8043,
      "تنتشر": 8044,
      "اسي": 8045,
      "##25": 8046,
      "مأزق": 8047,
      "##افح": 8048,
      "##جون": 8049,
      "استبعد": 8050,
      "اخو": 8051,
      "سوهاج": 8052,
      "تلقائي": 8053,
      "انضباط": 8054,
      "ائتماني": 8055,
      "حت": 8056,
      "يؤيد": 8057,
      "عبود": 8058,
      "معيار": 8059,
      "دعاء": 8060,
      "يضاف": 8061,
      "##لد": 8062,
      "قاري": 8063,
      "تكريس": 8064,
      "بلجيكا": 8065,
      "أؤ": 8066,
      "##افيا": 8067,
      "تجسيد": 8068,
      "حقائب": 8069,
      "رهن": 8070,
      "##كمل": 8071,
      "يسهل": 8072,
      "ثي": 8073,
      "علمى": 8074,
      "يشاهد": 8075,
      "فلك": 8076,
      "استراح": 8077,
      "تنجح": 8078,
      "عيب": 8079,
      "##ميش": 8080,
      "ظرف": 8081,
      "##اثر": 8082,
      "##فلت": 8083,
      "فاخر": 8084,
      "صربي": 8085,
      "التحق": 8086,
      "ساكن": 8087,
      "##شو": 8088,
      "أرثوذ": 8089,
      "ردد": 8090,
      "تتواصل": 8091,
      "ارتداء": 8092,
      "##14": 8093,
      "ليلي": 8094,
      "فالح": 8095,
      "بسام": 8096,
      "انتظر": 8097,
      "تقلب": 8098,
      "##امس": 8099,
      "قلبي": 8100,
      "يجيب": 8101,
      "نازي": 8102,
      "مؤلم": 8103,
      "استغرق": 8104,
      "هاجري": 8105,
      "غيب": 8106,
      "فجير": 8107,
      "رأسمالي": 8108,
      "إتح": 8109,
      "سكوت": 8110,
      "نصل": 8111,
      "لائق": 8112,
      "مجدى": 8113,
      "اكتمال": 8114,
      "عواقب": 8115,
      "نطالب": 8116,
      "##ويري": 8117,
      "فيتامين": 8118,
      "صيدلي": 8119,
      "عشاق": 8120,
      "ابد": 8121,
      "ظواهر": 8122,
      "التقاط": 8123,
      "مساءل": 8124,
      "كابتن": 8125,
      "لاق": 8126,
      "الب": 8127,
      "بيار": 8128,
      "راديو": 8129,
      "طاب": 8130,
      "ألقي": 8131,
      "سكك": 8132,
      "مرخص": 8133,
      "سلوف": 8134,
      "دهون": 8135,
      "##متع": 8136,
      "قارب": 8137,
      "أشقاء": 8138,
      "مني": 8139,
      "تصادم": 8140,
      "استمراري": 8141,
      "كال": 8142,
      "##ورغ": 8143,
      "ثدي": 8144,
      "تصريف": 8145,
      "تشدد": 8146,
      "وب": 8147,
      "##70": 8148,
      "انشغال": 8149,
      "يفوق": 8150,
      "الس": 8151,
      "عكار": 8152,
      "دكتوراه": 8153,
      "صفاء": 8154,
      "قرط": 8155,
      "جولي": 8156,
      "يكمن": 8157,
      "كاذب": 8158,
      "بركات": 8159,
      "سيسي": 8160,
      "كونغ": 8161,
      "منتسب": 8162,
      "##بيح": 8163,
      "ديبلوماسي": 8164,
      "عواد": 8165,
      "يتحرك": 8166,
      "جهادي": 8167,
      "يدافع": 8168,
      "ساس": 8169,
      "جند": 8170,
      "أنثى": 8171,
      "##nd": 8172,
      "مورد": 8173,
      "ديل": 8174,
      "انتعاش": 8175,
      "أرسنال": 8176,
      "مثلي": 8177,
      "ينطبق": 8178,
      "هنأ": 8179,
      "مليوني": 8180,
      "يساري": 8181,
      "##اتوري": 8182,
      "##om": 8183,
      "##نون": 8184,
      "##هيدي": 8185,
      "إنجلترا": 8186,
      "رمال": 8187,
      "منجز": 8188,
      "مناخي": 8189,
      "أننى": 8190,
      "جاهد": 8191,
      "بتروكيماوي": 8192,
      "صدف": 8193,
      "##اميم": 8194,
      "علن": 8195,
      "##هادي": 8196,
      "أرجاء": 8197,
      "استغناء": 8198,
      "نبذ": 8199,
      "بندقي": 8200,
      "اكتفاء": 8201,
      "معمول": 8202,
      "دمياط": 8203,
      "مليئ": 8204,
      "فروسي": 8205,
      "اصاب": 8206,
      "قاسمي": 8207,
      "مقارب": 8208,
      "##ذول": 8209,
      "إلزام": 8210,
      "انجاز": 8211,
      "أدباء": 8212,
      "طفر": 8213,
      "بيريز": 8214,
      "اعتزاز": 8215,
      "احتساب": 8216,
      "1948": 8217,
      "نوبل": 8218,
      "حائط": 8219,
      "أعيد": 8220,
      "##ترط": 8221,
      "صحراوي": 8222,
      "مفاد": 8223,
      "ترشيد": 8224,
      "أحمدي": 8225,
      "##ايلي": 8226,
      "تحطم": 8227,
      "يفوز": 8228,
      "يستطع": 8229,
      "ثر": 8230,
      "كردستاني": 8231,
      "كارلوس": 8232,
      "عرش": 8233,
      "قرني": 8234,
      "أنفاق": 8235,
      "بدائل": 8236,
      "تنفس": 8237,
      "##ثيوبيا": 8238,
      "##بورغ": 8239,
      "فصيل": 8240,
      "ملوث": 8241,
      "بذ": 8242,
      "صفراء": 8243,
      "أنفلونزا": 8244,
      "كليب": 8245,
      "نموذ": 8246,
      "تقتصر": 8247,
      "##هض": 8248,
      "كبر": 8249,
      "مشبوه": 8250,
      "أسمنت": 8251,
      "صكوك": 8252,
      "ضواحي": 8253,
      "قروي": 8254,
      "##اكو": 8255,
      "خلو": 8256,
      "ناهيك": 8257,
      "قبرص": 8258,
      "عتيق": 8259,
      "أصفر": 8260,
      "يجلس": 8261,
      "رشو": 8262,
      "تتز": 8263,
      "جبلي": 8264,
      "نسيان": 8265,
      "نموذجي": 8266,
      "##طرق": 8267,
      "إبداء": 8268,
      "احمدي": 8269,
      "تجول": 8270,
      "فيضان": 8271,
      "فقيه": 8272,
      "ائتمان": 8273,
      "تجسد": 8274,
      "مرفأ": 8275,
      "لوج": 8276,
      "350": 8277,
      "مسيح": 8278,
      "مطور": 8279,
      "زفاف": 8280,
      "سلمى": 8281,
      "##12": 8282,
      "فاتح": 8283,
      "سامح": 8284,
      "كلاب": 8285,
      "نصاب": 8286,
      "ريان": 8287,
      "شجع": 8288,
      "عسل": 8289,
      "نهب": 8290,
      "اتجه": 8291,
      "##فاع": 8292,
      "سبيعي": 8293,
      "##40": 8294,
      "##زاع": 8295,
      "نتم": 8296,
      "مجازر": 8297,
      "كيس": 8298,
      "نرف": 8299,
      "تسعين": 8300,
      "انبع": 8301,
      "هاشمي": 8302,
      "فدان": 8303,
      "##15": 8304,
      "معنا": 8305,
      "أكيد": 8306,
      "غسل": 8307,
      "1982": 8308,
      "وصاي": 8309,
      "مبذول": 8310,
      "##انغ": 8311,
      "صفي": 8312,
      "جبار": 8313,
      "ظلام": 8314,
      "انفجر": 8315,
      "قصاص": 8316,
      "مجنى": 8317,
      "تتوفر": 8318,
      "##واجن": 8319,
      "كلى": 8320,
      "جوني": 8321,
      "ولا": 8322,
      "فسي": 8323,
      "تطبيع": 8324,
      "تشيل": 8325,
      "هوائي": 8326,
      "##قار": 8327,
      "اتساع": 8328,
      "تتحرك": 8329,
      "##شع": 8330,
      "بوي": 8331,
      "ريتشارد": 8332,
      "أطعم": 8333,
      "منشود": 8334,
      "يخسر": 8335,
      "حقن": 8336,
      "عريش": 8337,
      "شين": 8338,
      "زهور": 8339,
      "حضري": 8340,
      "جنا": 8341,
      "زكى": 8342,
      "اط": 8343,
      "##ستون": 8344,
      "دواجن": 8345,
      "أسطور": 8346,
      "مدروس": 8347,
      "يميز": 8348,
      "##زمع": 8349,
      "مفاج": 8350,
      "ينضم": 8351,
      "اعتزال": 8352,
      "ألح": 8353,
      "##واي": 8354,
      "إتحاد": 8355,
      "##ادا": 8356,
      "مخلوع": 8357,
      "تذكير": 8358,
      "مختلط": 8359,
      "رول": 8360,
      "أير": 8361,
      "##حراف": 8362,
      "the": 8363,
      "ذريع": 8364,
      "حنين": 8365,
      "##ستا": 8366,
      "أقدام": 8367,
      "بوب": 8368,
      "كركوك": 8369,
      "انخراط": 8370,
      "ضوئي": 8371,
      "##فاوت": 8372,
      "شغ": 8373,
      "##ريقى": 8374,
      "يسلم": 8375,
      "يقلل": 8376,
      "بهج": 8377,
      "أقط": 8378,
      "اعترض": 8379,
      "سيادي": 8380,
      "مصنوع": 8381,
      "بيك": 8382,
      "حيواني": 8383,
      "تمهيدي": 8384,
      "اقتحم": 8385,
      "##ليك": 8386,
      "مشغل": 8387,
      "ليك": 8388,
      "هواي": 8389,
      "اث": 8390,
      "##طأ": 8391,
      "خيام": 8392,
      "مانح": 8393,
      "تقديري": 8394,
      "مهرب": 8395,
      "فه": 8396,
      "بيولوجي": 8397,
      "لكى": 8398,
      "فاد": 8399,
      "تسريب": 8400,
      "يستغل": 8401,
      "اخل": 8402,
      "أوغ": 8403,
      "مترو": 8404,
      "##اندي": 8405,
      "عصف": 8406,
      "##ناف": 8407,
      "يتجه": 8408,
      "مصاريف": 8409,
      "سطو": 8410,
      "ألغام": 8411,
      "توك": 8412,
      "شرس": 8413,
      "مصروف": 8414,
      "تغريد": 8415,
      "حقيقى": 8416,
      "يصنع": 8417,
      "يتيم": 8418,
      "جعجع": 8419,
      "مجهز": 8420,
      "جوزيه": 8421,
      "سى": 8422,
      "##وكس": 8423,
      "##كتاتوري": 8424,
      "ستان": 8425,
      "نصائح": 8426,
      "منب": 8427,
      "جوزيف": 8428,
      "يتضح": 8429,
      "أنشئ": 8430,
      "حتم": 8431,
      "انحراف": 8432,
      "فواز": 8433,
      "عفيف": 8434,
      "ايقاف": 8435,
      "فرنسى": 8436,
      "##يرى": 8437,
      "إبرام": 8438,
      "جح": 8439,
      "ملوك": 8440,
      "رهان": 8441,
      "استراتيجي": 8442,
      "شمر": 8443,
      "عان": 8444,
      "شعي": 8445,
      "كوال": 8446,
      "خفي": 8447,
      "عوائد": 8448,
      "وأ": 8449,
      "تعارض": 8450,
      "مرحوم": 8451,
      "إخفاق": 8452,
      "حروف": 8453,
      "شيراك": 8454,
      "اختفاء": 8455,
      "نافع": 8456,
      "##ent": 8457,
      "ضل": 8458,
      "تحب": 8459,
      "اشتراط": 8460,
      "استرداد": 8461,
      "عافي": 8462,
      "وع": 8463,
      "دوار": 8464,
      "دجاج": 8465,
      "دارس": 8466,
      "خو": 8467,
      "فيدرالي": 8468,
      "قسط": 8469,
      "تكاد": 8470,
      "تستغرق": 8471,
      "إشكالي": 8472,
      "حلوان": 8473,
      "أدري": 8474,
      "##ch": 8475,
      "جرأ": 8476,
      "##rab": 8477,
      "سخري": 8478,
      "##زعاج": 8479,
      "رياد": 8480,
      "أفض": 8481,
      "اختن": 8482,
      "##حدر": 8483,
      "كيني": 8484,
      "تبرز": 8485,
      "##بعث": 8486,
      "يضطر": 8487,
      "رسام": 8488,
      "رضوان": 8489,
      "##وسل": 8490,
      "مقهى": 8491,
      "احياء": 8492,
      "أفارق": 8493,
      "160": 8494,
      "تتحقق": 8495,
      "شاذ": 8496,
      "##75": 8497,
      "حارثي": 8498,
      "غزير": 8499,
      "عيوب": 8500,
      "متسابق": 8501,
      "يوفنتوس": 8502,
      "أظن": 8503,
      "بولندي": 8504,
      "##تهن": 8505,
      "مشتق": 8506,
      "أعمد": 8507,
      "أكرم": 8508,
      "كورنيش": 8509,
      "باسل": 8510,
      "بوم": 8511,
      "##اراتي": 8512,
      "تحرش": 8513,
      "##قن": 8514,
      "مساس": 8515,
      "تتخ": 8516,
      "بريدة": 8517,
      "كرر": 8518,
      "تدعى": 8519,
      "إبان": 8520,
      "قوا": 8521,
      "يلاحظ": 8522,
      "شتوي": 8523,
      "##ذن": 8524,
      "علب": 8525,
      "حسان": 8526,
      "ظفر": 8527,
      "مفاجآت": 8528,
      "##جوب": 8529,
      "تشلسي": 8530,
      "تصنع": 8531,
      "وول": 8532,
      "صمم": 8533,
      "بكالوريوس": 8534,
      "##جيلي": 8535,
      "بيس": 8536,
      "تقيد": 8537,
      "استقدام": 8538,
      "أفراح": 8539,
      "##ته": 8540,
      "عزيزي": 8541,
      "##غلو": 8542,
      "يجر": 8543,
      "إباد": 8544,
      "أبراج": 8545,
      "متص": 8546,
      "تعميق": 8547,
      "مسموح": 8548,
      "جناز": 8549,
      "إرساء": 8550,
      "رز": 8551,
      "##ثيث": 8552,
      "تدبير": 8553,
      "مناضل": 8554,
      "يلتزم": 8555,
      "يتصدر": 8556,
      "لحق": 8557,
      "انبعاث": 8558,
      "كفال": 8559,
      "يحترم": 8560,
      "حجب": 8561,
      "برم": 8562,
      "هاي": 8563,
      "استنكر": 8564,
      "##اقط": 8565,
      "تامر": 8566,
      "حمى": 8567,
      "##كلترا": 8568,
      "أوقع": 8569,
      "إجبار": 8570,
      "حير": 8571,
      "استاد": 8572,
      "انسحب": 8573,
      "جغرافيا": 8574,
      "هيكلي": 8575,
      "مؤسف": 8576,
      "مصادق": 8577,
      "خريف": 8578,
      "##16": 8579,
      "تدين": 8580,
      "لأنني": 8581,
      "قليوبي": 8582,
      "ثمر": 8583,
      "يقر": 8584,
      "1989": 8585,
      "تسريع": 8586,
      "نحاس": 8587,
      "صالون": 8588,
      "إيرانى": 8589,
      "آدم": 8590,
      "مداهم": 8591,
      "##فيري": 8592,
      "##وفى": 8593,
      "مجدي": 8594,
      "مدرع": 8595,
      "##بيلي": 8596,
      "صبيح": 8597,
      "ملازم": 8598,
      "تتش": 8599,
      "فيصلي": 8600,
      "تفريق": 8601,
      "نتوقع": 8602,
      "راسخ": 8603,
      "متعثر": 8604,
      "ميق": 8605,
      "مثمر": 8606,
      "أعطي": 8607,
      "نان": 8608,
      "##صاح": 8609,
      "بناي": 8610,
      "قسو": 8611,
      "##طوي": 8612,
      "إشع": 8613,
      "إنكلترا": 8614,
      "يبق": 8615,
      "2020": 8616,
      "تحرص": 8617,
      "أبا": 8618,
      "##13": 8619,
      "متعاقد": 8620,
      "شوف": 8621,
      "مرم": 8622,
      "إيهود": 8623,
      "تعاطف": 8624,
      "اكتسب": 8625,
      "نوا": 8626,
      "أصال": 8627,
      "تثقيف": 8628,
      "لقاح": 8629,
      "ذنب": 8630,
      "يعتزم": 8631,
      "فاق": 8632,
      "##هاض": 8633,
      "##ليز": 8634,
      "عواصم": 8635,
      "نخل": 8636,
      "ضار": 8637,
      "بلاك": 8638,
      "سوقي": 8639,
      "أثنى": 8640,
      "برود": 8641,
      "لور": 8642,
      "##اها": 8643,
      "سنت": 8644,
      "يحمي": 8645,
      "ريس": 8646,
      "صرخ": 8647,
      "آبار": 8648,
      "يحافظ": 8649,
      "رقيب": 8650,
      "نضع": 8651,
      "تجنيد": 8652,
      "يحتفل": 8653,
      "كلب": 8654,
      "أدار": 8655,
      "أنماط": 8656,
      "اختناق": 8657,
      "إهدار": 8658,
      "يشجع": 8659,
      "عبء": 8660,
      "جاذ": 8661,
      "##ضرم": 8662,
      "يلف": 8663,
      "متوجه": 8664,
      "باز": 8665,
      "مجرى": 8666,
      "تفويض": 8667,
      "صراف": 8668,
      "طليع": 8669,
      "اتضح": 8670,
      "خيول": 8671,
      "إذاعي": 8672,
      "مزمع": 8673,
      "انسجام": 8674,
      "Arab": 8675,
      "كوبا": 8676,
      "مقياس": 8677,
      "قهر": 8678,
      "اية": 8679,
      "##19": 8680,
      "هدر": 8681,
      "أسطوان": 8682,
      "ميقاتي": 8683,
      "اشتهر": 8684,
      "تحضر": 8685,
      "جفاف": 8686,
      "جاذبي": 8687,
      "نمساوي": 8688,
      "مسائي": 8689,
      "تخريج": 8690,
      "منظر": 8691,
      "أناس": 8692,
      "تعددي": 8693,
      "ماز": 8694,
      "تعمد": 8695,
      "ورث": 8696,
      "يتصل": 8697,
      "أراض": 8698,
      "##باري": 8699,
      "##ut": 8700,
      "يحذر": 8701,
      "##ct": 8702,
      "مناصر": 8703,
      "مايكر": 8704,
      "نحاول": 8705,
      "مقنع": 8706,
      "متسائل": 8707,
      "يكاد": 8708,
      "##89": 8709,
      "ماك": 8710,
      "عدلي": 8711,
      "سارع": 8712,
      "طنطا": 8713,
      "إلحاق": 8714,
      "تعدى": 8715,
      "اعتدال": 8716,
      "يخشى": 8717,
      "توري": 8718,
      "##حياز": 8719,
      "جرب": 8720,
      "زهير": 8721,
      "زحل": 8722,
      "##آر": 8723,
      "يكمل": 8724,
      "تلتزم": 8725,
      "ترسل": 8726,
      "مشغول": 8727,
      "فهمى": 8728,
      "شاق": 8729,
      "إتش": 8730,
      "##طيم": 8731,
      "قمام": 8732,
      "تفضل": 8733,
      "فدرالي": 8734,
      "مفعول": 8735,
      "كلغ": 8736,
      "##لبس": 8737,
      "تهميش": 8738,
      "##ذان": 8739,
      "بقر": 8740,
      "أذهان": 8741,
      "نفسى": 8742,
      "سالمي": 8743,
      "لياق": 8744,
      "يشتبه": 8745,
      "تصيب": 8746,
      "أحال": 8747,
      "تدرك": 8748,
      "عاي": 8749,
      "##فعال": 8750,
      "استبداد": 8751,
      "حمض": 8752,
      "##ولوجيا": 8753,
      "بهي": 8754,
      "تمور": 8755,
      "حلفائ": 8756,
      "منصف": 8757,
      "تسمم": 8758,
      "إحدا": 8759,
      "مقط": 8760,
      "مريح": 8761,
      "اكتئاب": 8762,
      "غلاء": 8763,
      "##نيك": 8764,
      "جبران": 8765,
      "1988": 8766,
      "متفائل": 8767,
      "طح": 8768,
      "انتداب": 8769,
      "يعالج": 8770,
      "تكرر": 8771,
      "##ذى": 8772,
      "بلطجي": 8773,
      "فاتي": 8774,
      "كند": 8775,
      "مرفوض": 8776,
      "أنهار": 8777,
      "##حداث": 8778,
      "ماهي": 8779,
      "موكل": 8780,
      "أولمرت": 8781,
      "حزين": 8782,
      "مزايد": 8783,
      "اللتين": 8784,
      "يردد": 8785,
      "دقهلي": 8786,
      "صفاق": 8787,
      "استكشاف": 8788,
      "مؤس": 8789,
      "انعكس": 8790,
      "أرجع": 8791,
      "شبيه": 8792,
      "189": 8793,
      "أوت": 8794,
      "إدمان": 8795,
      "أتباع": 8796,
      "مكشوف": 8797,
      "أنقذ": 8798,
      "التزم": 8799,
      "ننسى": 8800,
      "يونسكو": 8801,
      "أسل": 8802,
      "فارسي": 8803,
      "منوفي": 8804,
      "تصاميم": 8805,
      "##افئ": 8806,
      "غداء": 8807,
      "تخصيب": 8808,
      "محفظ": 8809,
      "ثمين": 8810,
      "تستقبل": 8811,
      "عطا": 8812,
      "ضئيل": 8813,
      "##وارد": 8814,
      "صوب": 8815,
      "##تفت": 8816,
      "تسقط": 8817,
      "انحياز": 8818,
      "مارتن": 8819,
      "إشراك": 8820,
      "بروز": 8821,
      "عزف": 8822,
      "أوبرا": 8823,
      "يلقى": 8824,
      "مفرط": 8825,
      "مضبوط": 8826,
      "مبروك": 8827,
      "لافروف": 8828,
      "جوزف": 8829,
      "دى": 8830,
      "إدريس": 8831,
      "بقري": 8832,
      "معبد": 8833,
      "أوف": 8834,
      "##ترع": 8835,
      "هيثم": 8836,
      "إقدام": 8837,
      "غزال": 8838,
      "حني": 8839,
      "تحضيري": 8840,
      "##ri": 8841,
      "ظالم": 8842,
      "##فيا": 8843,
      "##اعيلى": 8844,
      "عاهل": 8845,
      "جنون": 8846,
      "إحلال": 8847,
      "استيطاني": 8848,
      "سوزان": 8849,
      "رجع": 8850,
      "أوليم": 8851,
      "قوام": 8852,
      "رابح": 8853,
      "نووى": 8854,
      "نشيد": 8855,
      "طائل": 8856,
      "طوق": 8857,
      "آف": 8858,
      "محذر": 8859,
      "فرحان": 8860,
      "فادح": 8861,
      "أفريقى": 8862,
      "أصناف": 8863,
      "##as": 8864,
      "تمس": 8865,
      "استحداث": 8866,
      "محاصيل": 8867,
      "خور": 8868,
      "أجسام": 8869,
      "مخطوط": 8870,
      "معان": 8871,
      "##ئذ": 8872,
      "##برغ": 8873,
      "قاص": 8874,
      "اكتفى": 8875,
      "تتناسب": 8876,
      "##ماق": 8877,
      "##غني": 8878,
      "تحمي": 8879,
      "كشاف": 8880,
      "أسقط": 8881,
      "125": 8882,
      "حمول": 8883,
      "فيينا": 8884,
      "يكلف": 8885,
      "نسأل": 8886,
      "نزيف": 8887,
      "محسوب": 8888,
      "مواس": 8889,
      "نبر": 8890,
      "كربون": 8891,
      "1980": 8892,
      "ينال": 8893,
      "أورام": 8894,
      "قبال": 8895,
      "اهتم": 8896,
      "بادي": 8897,
      "يعين": 8898,
      "أقف": 8899,
      "##آرتس": 8900,
      "اقام": 8901,
      "##شت": 8902,
      "إضاء": 8903,
      "دس": 8904,
      "بطء": 8905,
      "تناسب": 8906,
      "متنزه": 8907,
      "رقب": 8908,
      "غلاف": 8909,
      "ندعو": 8910,
      "إنشائ": 8911,
      "##خار": 8912,
      "إنار": 8913,
      "عايد": 8914,
      "##ولين": 8915,
      "بأى": 8916,
      "التن": 8917,
      "##فيذى": 8918,
      "أذر": 8919,
      "حط": 8920,
      "مدح": 8921,
      "منام": 8922,
      "إحسان": 8923,
      "##تيكي": 8924,
      "of": 8925,
      "شيطان": 8926,
      "تراوح": 8927,
      "مزاعم": 8928,
      "جندى": 8929,
      "برو": 8930,
      "تنتقل": 8931,
      "راضي": 8932,
      "مزيج": 8933,
      "منبر": 8934,
      "شارل": 8935,
      "مزروع": 8936,
      "التنفيذى": 8937,
      "يترتب": 8938,
      "يرسل": 8939,
      "مها": 8940,
      "فون": 8941,
      "أجنح": 8942,
      "يتكلم": 8943,
      "##تاين": 8944,
      "اكتساب": 8945,
      "صواب": 8946,
      "بلور": 8947,
      "ثقافى": 8948,
      "يبعد": 8949,
      "سوفيتي": 8950,
      "مستأجر": 8951,
      "حياتي": 8952,
      "ظلال": 8953,
      "مصح": 8954,
      "عنيز": 8955,
      "زق": 8956,
      "أعمل": 8957,
      "حاشد": 8958,
      "رشح": 8959,
      "ترجع": 8960,
      "قدير": 8961,
      "يترأس": 8962,
      "نصيح": 8963,
      "تهرب": 8964,
      "ذهن": 8965,
      "يخالف": 8966,
      "معون": 8967,
      "قاضى": 8968,
      "كفاح": 8969,
      "تفكر": 8970,
      "أيوب": 8971,
      "تمريض": 8972,
      "كع": 8973,
      "أرجو": 8974,
      "إخفاء": 8975,
      "يتلق": 8976,
      "كرامي": 8977,
      "كوبي": 8978,
      "ترجيح": 8979,
      "تعترف": 8980,
      "جمعان": 8981,
      "فياض": 8982,
      "##ضعاف": 8983,
      "يضي": 8984,
      "أكتب": 8985,
      "شيم": 8986,
      "يتواجد": 8987,
      "تكتب": 8988,
      "##ونال": 8989,
      "أوسك": 8990,
      "ليالي": 8991,
      "تخلل": 8992,
      "اصطن": 8993,
      "مكرر": 8994,
      "قدامى": 8995,
      "يفسر": 8996,
      "بدي": 8997,
      "يجسد": 8998,
      "يتلقى": 8999,
      "دعاوى": 9000,
      "لقط": 9001,
      "##ظلم": 9002,
      "مرموق": 9003,
      "##ويلا": 9004,
      "إشعال": 9005,
      "باري": 9006,
      "مستح": 9007,
      "##اليل": 9008,
      "أمراء": 9009,
      "##us": 9010,
      "مسروق": 9011,
      "تسليح": 9012,
      "تحكي": 9013,
      "دياب": 9014,
      "أعوان": 9015,
      "##ناط": 9016,
      "افر": 9017,
      "ريش": 9018,
      "ينهي": 9019,
      "خاتم": 9020,
      "عوائق": 9021,
      "إلهي": 9022,
      "جاف": 9023,
      "مكمل": 9024,
      "قذافى": 9025,
      "لتر": 9026,
      "يتراجع": 9027,
      "منشط": 9028,
      "تنقيب": 9029,
      "بيني": 9030,
      "##هرب": 9031,
      "تاج": 9032,
      "أثير": 9033,
      "ملون": 9034,
      "##اوت": 9035,
      "##بون": 9036,
      "بيش": 9037,
      "أعقب": 9038,
      "تعمير": 9039,
      "يبرز": 9040,
      "أبني": 9041,
      "مخاب": 9042,
      "سرايا": 9043,
      "باهظ": 9044,
      "رومي": 9045,
      "محو": 9046,
      "تشغل": 9047,
      "##18": 9048,
      "رى": 9049,
      "رخيص": 9050,
      "نطق": 9051,
      "موروث": 9052,
      "وداع": 9053,
      "هياكل": 9054,
      "نقال": 9055,
      "خالق": 9056,
      "دينامي": 9057,
      "براون": 9058,
      "أوسكار": 9059,
      "##طرد": 9060,
      "##حور": 9061,
      "قرص": 9062,
      "نمر": 9063,
      "قاصر": 9064,
      "بدوي": 9065,
      "تمثال": 9066,
      "غانا": 9067,
      "افتراضي": 9068,
      "##سندر": 9069,
      "حشيش": 9070,
      "جثمان": 9071,
      "تكهن": 9072,
      "مسيل": 9073,
      "عسيري": 9074,
      "ينصح": 9075,
      "تنقي": 9076,
      "أشو": 9077,
      "فاتيكان": 9078,
      "##17": 9079,
      "صامت": 9080,
      "يقترب": 9081,
      "##خبط": 9082,
      "احتكاك": 9083,
      "##تمان": 9084,
      "مطبخ": 9085,
      "إفصاح": 9086,
      "تميم": 9087,
      "مخضرم": 9088,
      "داء": 9089,
      "التقي": 9090,
      "طوني": 9091,
      "عتب": 9092,
      "موكب": 9093,
      "مسفر": 9094,
      "1986": 9095,
      "##متاع": 9096,
      "ساخر": 9097,
      "نيكولا": 9098,
      "دامي": 9099,
      "معزول": 9100,
      "فوتو": 9101,
      "تشجع": 9102,
      "تتسبب": 9103,
      "حمادي": 9104,
      "بيطري": 9105,
      "إقصاء": 9106,
      "ديكور": 9107,
      "نيكول": 9108,
      "عقلاني": 9109,
      "Arabic": 9110,
      "بوتف": 9111,
      "روحاني": 9112,
      "أسبانيا": 9113,
      "متما": 9114,
      "##ايخ": 9115,
      "يلق": 9116,
      "##يلا": 9117,
      "تشيلي": 9118,
      "ليت": 9119,
      "التفاف": 9120,
      "يروي": 9121,
      "نيوزيل": 9122,
      "##طاوي": 9123,
      "##ارو": 9124,
      "مقاهي": 9125,
      "قوس": 9126,
      "يكتشف": 9127,
      "قمي": 9128,
      "##شادي": 9129,
      "يقطع": 9130,
      "فيتنام": 9131,
      "يتغ": 9132,
      "فيس": 9133,
      "فاكه": 9134,
      "أمامي": 9135,
      "مكسيكي": 9136,
      "مسؤولو": 9137,
      "اعتذر": 9138,
      "##am": 9139,
      "1979": 9140,
      "##ادو": 9141,
      "ندد": 9142,
      "900": 9143,
      "ألحان": 9144,
      "توضع": 9145,
      "##اتيح": 9146,
      "ساحر": 9147,
      "بهاء": 9148,
      "يستدعي": 9149,
      "أساسى": 9150,
      "غسيل": 9151,
      "بوتفليق": 9152,
      "مفاتيح": 9153,
      "تباطؤ": 9154,
      "استمتاع": 9155,
      "إفلاس": 9156,
      "##جاهل": 9157,
      "نعتبر": 9158,
      "تماسك": 9159,
      "واي": 9160,
      "نعيمي": 9161,
      "##AS": 9162,
      "ماريا": 9163,
      "معوض": 9164,
      "##غرام": 9165,
      "إكر": 9166,
      "تدافع": 9167,
      "##أب": 9168,
      "تنز": 9169,
      "تفرغ": 9170,
      "عداد": 9171,
      "برق": 9172,
      "##ينز": 9173,
      "مرد": 9174,
      "عجيب": 9175,
      "شروع": 9176,
      "سوفياتي": 9177,
      "يقظ": 9178,
      "##حدد": 9179,
      "##ومن": 9180,
      "ليم": 9181,
      "مائد": 9182,
      "نصار": 9183,
      "تسأل": 9184,
      "نباتي": 9185,
      "يتوجب": 9186,
      "##ضاح": 9187,
      "جونز": 9188,
      "##بيري": 9189,
      "امري": 9190,
      "##36": 9191,
      "##صالي": 9192,
      "شيخة": 9193,
      "أنفاس": 9194,
      "برمج": 9195,
      "حظوظ": 9196,
      "رالي": 9197,
      "##طئ": 9198,
      "يتش": 9199,
      "أوصى": 9200,
      "اصطدام": 9201,
      "##وسوفت": 9202,
      "ويلي": 9203,
      "هاتين": 9204,
      "منتقد": 9205,
      "محروق": 9206,
      "##برع": 9207,
      "مرجو": 9208,
      "تتأثر": 9209,
      "يميني": 9210,
      "موفق": 9211,
      "ممث": 9212,
      "##تيس": 9213,
      "مهنا": 9214,
      "ردع": 9215,
      "أميري": 9216,
      "محوري": 9217,
      "استغرب": 9218,
      "تسليط": 9219,
      "متضمن": 9220,
      "ميلادي": 9221,
      "خاطف": 9222,
      "إجتم": 9223,
      "سطحي": 9224,
      "غراب": 9225,
      "تدني": 9226,
      "محافل": 9227,
      "يتساءل": 9228,
      "كشوف": 9229,
      "استغر": 9230,
      "جزائي": 9231,
      "راقص": 9232,
      "##28": 9233,
      "يطلع": 9234,
      "تين": 9235,
      "خلع": 9236,
      "يصدق": 9237,
      "موسيق": 9238,
      "ألكسندر": 9239,
      "نير": 9240,
      "##45": 9241,
      "##انج": 9242,
      "تسويقي": 9243,
      "آرائ": 9244,
      "فيزياء": 9245,
      "تتوافر": 9246,
      "فتم": 9247,
      "منكر": 9248,
      "##اسى": 9249,
      "ساري": 9250,
      "صباحى": 9251,
      "انجليزي": 9252,
      "##قلاع": 9253,
      "فاتور": 9254,
      "تبث": 9255,
      "خضار": 9256,
      "نكت": 9257,
      "حولي": 9258,
      "فراش": 9259,
      "جرام": 9260,
      "عيني": 9261,
      "##دل": 9262,
      "##35": 9263,
      "رفاعي": 9264,
      "كامب": 9265,
      "كوفي": 9266,
      "رشاش": 9267,
      "برمجي": 9268,
      "متض": 9269,
      "##76": 9270,
      "جاني": 9271,
      "تقلص": 9272,
      "استدع": 9273,
      "إسكت": 9274,
      "##وهر": 9275,
      "تركى": 9276,
      "خرائط": 9277,
      "حصن": 9278,
      "جيوش": 9279,
      "رمل": 9280,
      "صدى": 9281,
      "غواص": 9282,
      "كريس": 9283,
      "إحضار": 9284,
      "سماوي": 9285,
      "غرس": 9286,
      "رفاهي": 9287,
      "مقيد": 9288,
      "بالي": 9289,
      "بديع": 9290,
      "بسم": 9291,
      "صليبي": 9292,
      "استفزاز": 9293,
      "##شا": 9294,
      "##اردو": 9295,
      "##لسن": 9296,
      "مشاد": 9297,
      "شاف": 9298,
      "تعصب": 9299,
      "اضط": 9300,
      "التقاء": 9301,
      "حضان": 9302,
      "مؤسسي": 9303,
      "نشب": 9304,
      "استسلام": 9305,
      "أثينا": 9306,
      "تحفيظ": 9307,
      "تشارل": 9308,
      "مغاير": 9309,
      "كد": 9310,
      "ماشي": 9311,
      "عانى": 9312,
      "نوادي": 9313,
      "عبدالحميد": 9314,
      "يومى": 9315,
      "##صيف": 9316,
      "بود": 9317,
      "مرتد": 9318,
      "نبض": 9319,
      "تشكيك": 9320,
      "فخري": 9321,
      "مستغرب": 9322,
      "شرايين": 9323,
      "##بدا": 9324,
      "إعصار": 9325,
      "متين": 9326,
      "##هيب": 9327,
      "فندقي": 9328,
      "##بيدي": 9329,
      "##سماعيلى": 9330,
      "مجوهر": 9331,
      "ثوب": 9332,
      "موبايلي": 9333,
      "منتدي": 9334,
      "##بكي": 9335,
      "الإسماعيلى": 9336,
      "كولومبيا": 9337,
      "يخطط": 9338,
      "والي": 9339,
      "اشتباه": 9340,
      "قفص": 9341,
      "كبري": 9342,
      "عت": 9343,
      "1973": 9344,
      "تدرج": 9345,
      "تستفيد": 9346,
      "ليكود": 9347,
      "طبى": 9348,
      "مذبح": 9349,
      "فواتير": 9350,
      "لد": 9351,
      "يتعلم": 9352,
      "مولى": 9353,
      "حبل": 9354,
      "ترافق": 9355,
      "بكاء": 9356,
      "يخلق": 9357,
      "مشايخ": 9358,
      "دنم": 9359,
      "رمادي": 9360,
      "##هذا": 9361,
      "##غط": 9362,
      "فتحي": 9363,
      "اللواتي": 9364,
      "1975": 9365,
      "##هولم": 9366,
      "مفاصل": 9367,
      "ثن": 9368,
      "يقابل": 9369,
      "امكاني": 9370,
      "تضاعف": 9371,
      "سحاب": 9372,
      "اللاتي": 9373,
      "شبرا": 9374,
      "شفاف": 9375,
      "حواري": 9376,
      "مزاول": 9377,
      "مزاج": 9378,
      "مأل": 9379,
      "مسموع": 9380,
      "فواكه": 9381,
      "نؤكد": 9382,
      "خياط": 9383,
      "هاجس": 9384,
      "نشعر": 9385,
      "تدوير": 9386,
      "جورجيا": 9387,
      "مضط": 9388,
      "شامي": 9389,
      "تريليون": 9390,
      "أتع": 9391,
      "##48": 9392,
      "حتف": 9393,
      "مصيري": 9394,
      "##صيلي": 9395,
      "مألوف": 9396,
      "منعقد": 9397,
      "التقط": 9398,
      "سعدي": 9399,
      "فلوري": 9400,
      "أخصائي": 9401,
      "معترف": 9402,
      "##79": 9403,
      "ارتباك": 9404,
      "إشاد": 9405,
      "مدعى": 9406,
      "رحال": 9407,
      "سولار": 9408,
      "مجند": 9409,
      "موسوي": 9410,
      "متعمد": 9411,
      "شمولي": 9412,
      "##id": 9413,
      "نيو": 9414,
      "عرس": 9415,
      "أعماق": 9416,
      "##بوب": 9417,
      "##اسيس": 9418,
      "تسمع": 9419,
      "تتسم": 9420,
      "استب": 9421,
      "سابك": 9422,
      "ثني": 9423,
      "منصوص": 9424,
      "أذى": 9425,
      "توأم": 9426,
      "##يسور": 9427,
      "إعار": 9428,
      "توافد": 9429,
      "خراب": 9430,
      "حيل": 9431,
      "سامى": 9432,
      "عذاب": 9433,
      "تبعي": 9434,
      "ذوق": 9435,
      "محايد": 9436,
      "شوقي": 9437,
      "تكفي": 9438,
      "كيمياء": 9439,
      "اعبى": 9440,
      "فنزويلا": 9441,
      "##صاري": 9442,
      "مخازن": 9443,
      "##ينى": 9444,
      "منال": 9445,
      "يبيع": 9446,
      "غط": 9447,
      "يرم": 9448,
      "موز": 9449,
      "ارتد": 9450,
      "أغلى": 9451,
      "وجيز": 9452,
      "تكييف": 9453,
      "##ادور": 9454,
      "##ديعوت": 9455,
      "##برتو": 9456,
      "مران": 9457,
      "خبي": 9458,
      "بوسن": 9459,
      "مغارب": 9460,
      "فيلا": 9461,
      "يديعوت": 9462,
      "نحل": 9463,
      "مبيد": 9464,
      "استنكار": 9465,
      "يضر": 9466,
      "يتذكر": 9467,
      "ميم": 9468,
      "يعانى": 9469,
      "عواطف": 9470,
      "مضرب": 9471,
      "مرآ": 9472,
      "خاطر": 9473,
      "خيالي": 9474,
      "سوم": 9475,
      "##تموند": 9476,
      "لاذقي": 9477,
      "متاحف": 9478,
      "عايض": 9479,
      "جزي": 9480,
      "مرزوقي": 9481,
      "هزم": 9482,
      "تمرين": 9483,
      "لاسلكي": 9484,
      "اسكان": 9485,
      "##ناد": 9486,
      "مخزن": 9487,
      "##مجيد": 9488,
      "إقلاع": 9489,
      "ماب": 9490,
      "عوي": 9491,
      "أضعاف": 9492,
      "نغ": 9493,
      "##شيف": 9494,
      "نشهد": 9495,
      "لوجستي": 9496,
      "##اتير": 9497,
      "زعزع": 9498,
      "دائري": 9499,
      "عبدالمجيد": 9500,
      "نبدأ": 9501,
      "يحرم": 9502,
      "راش": 9503,
      "تتل": 9504,
      "105": 9505,
      "##46": 9506,
      "عصب": 9507,
      "##ماركي": 9508,
      "إنزال": 9509,
      "##49": 9510,
      "تتكرر": 9511,
      "محصل": 9512,
      "يرتدي": 9513,
      "لايزال": 9514,
      "##وكم": 9515,
      "تخطط": 9516,
      "##جنب": 9517,
      "حاسوب": 9518,
      "يرض": 9519,
      "مغار": 9520,
      "صحو": 9521,
      "##وائ": 9522,
      "##ماسي": 9523,
      "غلب": 9524,
      "يدعي": 9525,
      "سعدون": 9526,
      "ظهران": 9527,
      "هونغ": 9528,
      "ظبي": 9529,
      "##ماشى": 9530,
      "أكن": 9531,
      "##نق": 9532,
      "اصطناعي": 9533,
      "جموع": 9534,
      "##غوب": 9535,
      "نزار": 9536,
      "يسود": 9537,
      "مديوني": 9538,
      "دورتموند": 9539,
      "أنطونيو": 9540,
      "نصرالله": 9541,
      "صخر": 9542,
      "ممول": 9543,
      "تحيط": 9544,
      "انفلونزا": 9545,
      "حثيث": 9546,
      "شطب": 9547,
      "فأ": 9548,
      "##وجل": 9549,
      "ارتبط": 9550,
      "إعطائ": 9551,
      "ابتزاز": 9552,
      "مقطوع": 9553,
      "مايكروسوفت": 9554,
      "أسأل": 9555,
      "رهائن": 9556,
      "أعلا": 9557,
      "حمدي": 9558,
      "ثأر": 9559,
      "والا": 9560,
      "هاجر": 9561,
      "فهى": 9562,
      "تعترض": 9563,
      "فيني": 9564,
      "وباء": 9565,
      "نعمان": 9566,
      "##طانى": 9567,
      "مستعمل": 9568,
      "حذف": 9569,
      "نابلس": 9570,
      "تعري": 9571,
      "ايدي": 9572,
      "يرتكب": 9573,
      "يتعدى": 9574,
      "ناصري": 9575,
      "بؤر": 9576,
      "أبسط": 9577,
      "1981": 9578,
      "عزيم": 9579,
      "مستبعد": 9580,
      "ستيفن": 9581,
      "##ابح": 9582,
      "غور": 9583,
      "تعز": 9584,
      "أقاليم": 9585,
      "##وجر": 9586,
      "تعالج": 9587,
      "تذليل": 9588,
      "معقل": 9589,
      "يرحم": 9590,
      "فوتوغرافي": 9591,
      "قدو": 9592,
      "انشق": 9593,
      "وش": 9594,
      "تتس": 9595,
      "مسدس": 9596,
      "شافي": 9597,
      "عمير": 9598,
      "دوران": 9599,
[...]
